{
  "version": "1.0",
  "truncation": null,
  "padding": null,
  "added_tokens": [
    {
      "id": 0,
      "content": "[PAD]",
      "single_word": false,
      "lstrip": false,
      "rstrip": false,
      "normalized": false,
      "special": true
    },
    {
      "id": 1,
      "content": "[CLS]",
      "single_word": false,
      "lstrip": false,
      "rstrip": false,
      "normalized": false,
      "special": true
    },
    {
      "id": 2,
      "content": "[SEP]",
      "single_word": false,
      "lstrip": false,
      "rstrip": false,
      "normalized": false,
      "special": true
    },
    {
      "id": 3,
      "content": "[UNK]",
      "single_word": false,
      "lstrip": false,
      "rstrip": false,
      "normalized": false,
      "special": true
    },
    {
      "id": 4,
      "content": "[BOS]",
      "single_word": false,
      "lstrip": false,
      "rstrip": false,
      "normalized": false,
      "special": true
    },
    {
      "id": 5,
      "content": "[EOS]",
      "single_word": false,
      "lstrip": false,
      "rstrip": false,
      "normalized": false,
      "special": true
    }
  ],
  "normalizer": null,
  "pre_tokenizer": {
    "type": "Whitespace"
  },
  "post_processor": null,
  "decoder": null,
  "model": {
    "type": "WordPiece",
    "unk_token": "[UNK]",
    "continuing_subword_prefix": "##",
    "max_input_chars_per_word": 100,
    "vocab": {
      "[PAD]": 0,
      "[CLS]": 1,
      "[SEP]": 2,
      "[UNK]": 3,
      "[BOS]": 4,
      "[EOS]": 5,
      "!": 6,
      "\"": 7,
      "#": 8,
      "$": 9,
      "%": 10,
      "&": 11,
      "'": 12,
      "(": 13,
      ")": 14,
      "*": 15,
      "+": 16,
      ",": 17,
      "-": 18,
      ".": 19,
      "/": 20,
      "0": 21,
      "1": 22,
      "2": 23,
      "3": 24,
      "4": 25,
      "5": 26,
      "6": 27,
      "7": 28,
      "8": 29,
      "9": 30,
      ":": 31,
      ";": 32,
      "<": 33,
      "=": 34,
      ">": 35,
      "?": 36,
      "@": 37,
      "A": 38,
      "B": 39,
      "C": 40,
      "D": 41,
      "E": 42,
      "F": 43,
      "G": 44,
      "H": 45,
      "I": 46,
      "J": 47,
      "K": 48,
      "L": 49,
      "M": 50,
      "N": 51,
      "O": 52,
      "P": 53,
      "Q": 54,
      "R": 55,
      "S": 56,
      "T": 57,
      "U": 58,
      "V": 59,
      "W": 60,
      "X": 61,
      "Y": 62,
      "Z": 63,
      "[": 64,
      "\\": 65,
      "]": 66,
      "^": 67,
      "_": 68,
      "`": 69,
      "a": 70,
      "b": 71,
      "c": 72,
      "d": 73,
      "e": 74,
      "f": 75,
      "g": 76,
      "h": 77,
      "i": 78,
      "j": 79,
      "k": 80,
      "l": 81,
      "m": 82,
      "n": 83,
      "o": 84,
      "p": 85,
      "q": 86,
      "r": 87,
      "s": 88,
      "t": 89,
      "u": 90,
      "v": 91,
      "w": 92,
      "x": 93,
      "y": 94,
      "z": 95,
      "{": 96,
      "|": 97,
      "}": 98,
      "~": 99,
      "##u": 100,
      "##b": 101,
      "##g": 102,
      "##r": 103,
      "##o": 104,
      "##p": 105,
      "##s": 106,
      "##a": 107,
      "##n": 108,
      "##l": 109,
      "##i": 110,
      "##z": 111,
      "##e": 112,
      "##t": 113,
      "##h": 114,
      "##y": 115,
      "##F": 116,
      "##M": 117,
      "##c": 118,
      "##C": 119,
      "##x": 120,
      "##d": 121,
      "##B": 122,
      "##P": 123,
      "##A": 124,
      "##V": 125,
      "##D": 126,
      "##f": 127,
      "##m": 128,
      "##w": 129,
      "##v": 130,
      "##E": 131,
      "##^": 132,
      "##{": 133,
      "##\\": 134,
      "##R": 135,
      "##S": 136,
      "##2": 137,
      "##0": 138,
      "##O": 139,
      "##q": 140,
      "##}": 141,
      "##)": 142,
      "##$": 143,
      "##/": 144,
      "##9": 145,
      "##1": 146,
      "##L": 147,
      "##I": 148,
      "##k": 149,
      "##N": 150,
      "##|": 151,
      "##_": 152,
      "##5": 153,
      "##,": 154,
      "##W": 155,
      "##T": 156,
      "##3": 157,
      "##6": 158,
      "##+": 159,
      "##j": 160,
      "##H": 161,
      "##X": 162,
      "##U": 163,
      "##7": 164,
      "##8": 165,
      "##.": 166,
      "##4": 167,
      "##K": 168,
      "##G": 169,
      "##[": 170,
      "##?": 171,
      "##'": 172,
      "##-": 173,
      "##;": 174,
      "##(": 175,
      "##=": 176,
      "##\"": 177,
      "##`": 178,
      "##]": 179,
      "##Q": 180,
      "##>": 181,
      "##Z": 182,
      "##Y": 183,
      "##*": 184,
      "##J": 185,
      "##<": 186,
      "##%": 187,
      "##~": 188,
      "##:": 189,
      "###": 190,
      "##&": 191,
      "##!": 192,
      "##ti": 193,
      "th": 194,
      "##on": 195,
      "##er": 196,
      "##in": 197,
      "##or": 198,
      "##es": 199,
      "##en": 200,
      "the": 201,
      "##al": 202,
      "##at": 203,
      "##ed": 204,
      "##tion": 205,
      "##ar": 206,
      "of": 207,
      "##ro": 208,
      "##ing": 209,
      "##nd": 210,
      "##it": 211,
      "in": 212,
      "##an": 213,
      "##ic": 214,
      "##is": 215,
      "##et": 216,
      "##el": 217,
      "##as": 218,
      "##ation": 219,
      "to": 220,
      "and": 221,
      "##ur": 222,
      "##ec": 223,
      "##ent": 224,
      "##le": 225,
      "##mp": 226,
      "pro": 227,
      "##ac": 228,
      "##od": 229,
      "##ith": 230,
      "##ly": 231,
      "##st": 232,
      "##ve": 233,
      "##im": 234,
      "##ul": 235,
      "is": 236,
      "##si": 237,
      "co": 238,
      "for": 239,
      "##re": 240,
      "al": 241,
      "##ear": 242,
      "on": 243,
      "con": 244,
      "##ce": 245,
      "##ow": 246,
      "that": 247,
      "st": 248,
      "##ut": 249,
      "##ra": 250,
      "re": 251,
      "##ble": 252,
      "ex": 253,
      "##pp": 254,
      "##ch": 255,
      "##per": 256,
      "an": 257,
      "##ate": 258,
      "we": 259,
      "##tic": 260,
      "##ver": 261,
      "wh": 262,
      "##os": 263,
      "##earn": 264,
      "Th": 265,
      "##iz": 266,
      "##ri": 267,
      "##ts": 268,
      "learn": 269,
      "We": 270,
      "as": 271,
      "with": 272,
      "app": 273,
      "dat": 274,
      "su": 275,
      "##tin": 276,
      "comp": 277,
      "mod": 278,
      "##gor": 279,
      "##ms": 280,
      "##for": 281,
      "cl": 282,
      "us": 283,
      "##ig": 284,
      "##il": 285,
      "##res": 286,
      "##fic": 287,
      "##gorith": 288,
      "algorith": 289,
      "##ol": 290,
      "##ting": 291,
      "##ity": 292,
      "model": 293,
      "##ou": 294,
      "##om": 295,
      "##ach": 296,
      "##ter": 297,
      "be": 298,
      "##ork": 299,
      "de": 300,
      "met": 301,
      "learning": 302,
      "##ir": 303,
      "##ab": 304,
      "are": 305,
      "##ge": 306,
      "this": 307,
      "##th": 308,
      "##id": 309,
      "##form": 310,
      "data": 311,
      "##hod": 312,
      "##tive": 313,
      "##ect": 314,
      "method": 315,
      "##uc": 316,
      "##tim": 317,
      "sp": 318,
      "##qu": 319,
      "##am": 320,
      "res": 321,
      "by": 322,
      "##ure": 323,
      "sh": 324,
      "The": 325,
      "proble": 326,
      "##ally": 327,
      "clas": 328,
      "##um": 329,
      "dis": 330,
      "appro": 331,
      "##etw": 332,
      "In": 333,
      "##ew": 334,
      "##ations": 335,
      "prop": 336,
      "##ers": 337,
      "##ich": 338,
      "##ari": 339,
      "can": 340,
      "##un": 341,
      "##ess": 342,
      "##ain": 343,
      "algorithm": 344,
      "##tions": 345,
      "no": 346,
      "propos": 347,
      "which": 348,
      "##ence": 349,
      "##ance": 350,
      "ac": 351,
      "par": 352,
      "##rom": 353,
      "##em": 354,
      "pr": 355,
      "bas": 356,
      "##sion": 357,
      "##ant": 358,
      "per": 359,
      "from": 360,
      "##ay": 361,
      "##di": 362,
      "show": 363,
      "##fer": 364,
      "or": 365,
      "##ni": 366,
      "##vel": 367,
      "##ore": 368,
      "##igh": 369,
      "##and": 370,
      "##ents": 371,
      "imp": 372,
      "##ization": 373,
      "gen": 374,
      "ad": 375,
      "pa": 376,
      "##ine": 377,
      "##if": 378,
      "##able": 379,
      "rec": 380,
      "op": 381,
      "##rain": 382,
      "##etwork": 383,
      "po": 384,
      "##ust": 385,
      "##us": 386,
      "resul": 387,
      "##resent": 388,
      "based": 389,
      "set": 390,
      "problem": 391,
      "##ep": 392,
      "##ated": 393,
      "ob": 394,
      "##oc": 395,
      "##rib": 396,
      "##amp": 397,
      "ef": 398,
      "gener": 399,
      "our": 400,
      "##ere": 401,
      "approach": 402,
      "classi": 403,
      "en": 404,
      "##og": 405,
      "network": 406,
      "ar": 407,
      "str": 408,
      "int": 409,
      "optim": 410,
      "##ous": 411,
      "vari": 412,
      "##all": 413,
      "perform": 414,
      "fe": 415,
      "exp": 416,
      "##unc": 417,
      "##end": 418,
      "reg": 419,
      "paper": 420,
      "ma": 421,
      "##ical": 422,
      "algorithms": 423,
      "##uct": 424,
      "dist": 425,
      "ch": 426,
      "it": 427,
      "func": 428,
      "##ular": 429,
      "##ment": 430,
      "methods": 431,
      "##xim": 432,
      "ne": 433,
      "se": 434,
      "##ures": 435,
      "##lic": 436,
      "##fici": 437,
      "##est": 438,
      "models": 439,
      "##str": 440,
      "##ution": 441,
      "feat": 442,
      "##der": 443,
      "mat": 444,
      "##ap": 445,
      "##age": 446,
      "##vid": 447,
      "at": 448,
      "un": 449,
      "results": 450,
      "rel": 451,
      "rep": 452,
      "##mon": 453,
      "##aly": 454,
      "##se": 455,
      "##ound": 456,
      "##les": 457,
      "##ulti": 458,
      "sc": 459,
      "##ven": 460,
      "gra": 461,
      "##ud": 462,
      "This": 463,
      "train": 464,
      "##oth": 465,
      "sy": 466,
      "acc": 467,
      "dif": 468,
      "tim": 469,
      "es": 470,
      "##ies": 471,
      "##fication": 472,
      "##abil": 473,
      "##enti": 474,
      "##act": 475,
      "using": 476,
      "##edic": 477,
      "cont": 478,
      "samp": 479,
      "##so": 480,
      "##sis": 481,
      "##ad": 482,
      "such": 483,
      "##ative": 484,
      "comput": 485,
      "performance": 486,
      "analy": 487,
      "##ese": 488,
      "multi": 489,
      "qu": 490,
      "predic": 491,
      "proposed": 492,
      "com": 493,
      "##ask": 494,
      "distrib": 495,
      "##ag": 496,
      "me": 497,
      "##ary": 498,
      "##alu": 499,
      "##ection": 500,
      "num": 501,
      "##ati": 502,
      "##ech": 503,
      "##tical": 504,
      "new": 505,
      "##cess": 506,
      "##ave": 507,
      "##amet": 508,
      "##ard": 509,
      "##ram": 510,
      "##ural": 511,
      "##ension": 512,
      "##ther": 513,
      "has": 514,
      "time": 515,
      "task": 516,
      "sub": 517,
      "tr": 518,
      "##ph": 519,
      "inc": 520,
      "non": 521,
      "all": 522,
      "le": 523,
      "des": 524,
      "##perim": 525,
      "##inear": 526,
      "##now": 527,
      "##ort": 528,
      "estim": 529,
      "propose": 530,
      "##ric": 531,
      "##enc": 532,
      "over": 533,
      "##vi": 534,
      "provid": 535,
      "##ves": 536,
      "have": 537,
      "also": 538,
      "##ficient": 539,
      "out": 540,
      "general": 541,
      "##ber": 542,
      "sol": 543,
      "high": 544,
      "struct": 545,
      "tw": 546,
      "inter": 547,
      "man": 548,
      "##ion": 549,
      "bound": 550,
      "##ell": 551,
      "##ors": 552,
      "ext": 553,
      "differ": 554,
      "two": 555,
      "class": 556,
      "lar": 557,
      "clust": 558,
      "classification": 559,
      "not": 560,
      "##formation": 561,
      "##xt": 562,
      "##op": 563,
      "problems": 564,
      "paramet": 565,
      "sig": 566,
      "##aset": 567,
      "##ates": 568,
      "Our": 569,
      "these": 570,
      "function": 571,
      "dataset": 572,
      "##ace": 573,
      "##lex": 574,
      "##imension": 575,
      "ind": 576,
      "number": 577,
      "##fi": 578,
      "##ll": 579,
      "used": 580,
      "und": 581,
      "##tain": 582,
      "represent": 583,
      "##dition": 584,
      "dimension": 585,
      "present": 586,
      "##ely": 587,
      "training": 588,
      "compar": 589,
      "use": 590,
      "min": 591,
      "##ans": 592,
      "sim": 593,
      "##ding": 594,
      "##ability": 595,
      "##ved": 596,
      "under": 597,
      "work": 598,
      "impro": 599,
      "##ties": 600,
      "##ized": 601,
      "syst": 602,
      "large": 603,
      "##ern": 604,
      "information": 605,
      "where": 606,
      "##ize": 607,
      "##lo": 608,
      "ev": 609,
      "applic": 610,
      "approxim": 611,
      "fram": 612,
      "##ie": 613,
      "dec": 614,
      "efficient": 615,
      "accur": 616,
      "##ual": 617,
      "know": 618,
      "linear": 619,
      "disc": 620,
      "tech": 621,
      "##een": 622,
      "##abel": 623,
      "##etween": 624,
      "between": 625,
      "cluster": 626,
      "networks": 627,
      "##rou": 628,
      "##niqu": 629,
      "each": 630,
      "experim": 631,
      "more": 632,
      "ass": 633,
      "im": 634,
      "##ial": 635,
      "than": 636,
      "det": 637,
      "demon": 638,
      "both": 639,
      "ran": 640,
      "##ework": 641,
      "framework": 642,
      "process": 643,
      "##ase": 644,
      "mo": 645,
      "state": 646,
      "its": 647,
      "complex": 648,
      "real": 649,
      "##ise": 650,
      "sel": 651,
      "spar": 652,
      "demonstr": 653,
      "##ot": 654,
      "wor": 655,
      "analysis": 656,
      "low": 657,
      "##gh": 658,
      "##ack": 659,
      "##ast": 660,
      "mach": 661,
      "cor": 662,
      "##put": 663,
      "##ome": 664,
      "graph": 665,
      "##ating": 666,
      "##yp": 667,
      "one": 668,
      "features": 669,
      "fin": 670,
      "form": 671,
      "gi": 672,
      "techniqu": 673,
      "##acy": 674,
      "computation": 675,
      "##istic": 676,
      "when": 677,
      "##ree": 678,
      "##ving": 679,
      "well": 680,
      "##aus": 681,
      "##ip": 682,
      "##vis": 683,
      "different": 684,
      "##ret": 685,
      "optimization": 686,
      "scal": 687,
      "##rix": 688,
      "consi": 689,
      "##eri": 690,
      "prob": 691,
      "##ens": 692,
      "##ernel": 693,
      "##over": 694,
      "##rod": 695,
      "been": 696,
      "##andom": 697,
      "$\\": 698,
      "label": 699,
      "pre": 700,
      "##atis": 701,
      "matrix": 702,
      "emp": 703,
      ").": 704,
      "##irst": 705,
      "##out": 706,
      "##ective": 707,
      "consider": 708,
      "##ke": 709,
      "##our": 710,
      "meas": 711,
      "##ds": 712,
      "##li": 713,
      "##chie": 714,
      "achie": 715,
      "##pervis": 716,
      "obj": 717,
      "kernel": 718,
      "other": 719,
      "minim": 720,
      "machine": 721,
      "only": 722,
      "their": 723,
      "##ser": 724,
      "##uce": 725,
      "feature": 726,
      "classifi": 727,
      "sm": 728,
      "##ever": 729,
      "clustering": 730,
      "neural": 731,
      "ver": 732,
      "eff": 733,
      "random": 734,
      "##ory": 735,
      "##ile": 736,
      "optimal": 737,
      "introd": 738,
      "si": 739,
      "##ose": 740,
      "ab": 741,
      "##ark": 742,
      "many": 743,
      "dimensional": 744,
      "##pervised": 745,
      "demonstrate": 746,
      "id": 747,
      "##ong": 748,
      "dep": 749,
      "##rr": 750,
      "conver": 751,
      "##ression": 752,
      "how": 753,
      "##velop": 754,
      "requ": 755,
      "##ext": 756,
      "red": 757,
      "provide": 758,
      "##ight": 759,
      "),": 760,
      "exis": 761,
      "develop": 762,
      "simp": 763,
      "distribution": 764,
      "deep": 765,
      "novel": 766,
      "##ian": 767,
      "into": 768,
      "stud": 769,
      "datasets": 770,
      "evalu": 771,
      "##ail": 772,
      "rank": 773,
      "##earch": 774,
      "##ue": 775,
      "pri": 776,
      "order": 777,
      "ro": 778,
      "##ful": 779,
      "##ayes": 780,
      "obser": 781,
      "##ood": 782,
      "desc": 783,
      "##tern": 784,
      "##ling": 785,
      "space": 786,
      "##anc": 787,
      "but": 788,
      "Bayes": 789,
      "##ite": 790,
      "##int": 791,
      "##vex": 792,
      "infer": 793,
      "up": 794,
      "err": 795,
      "first": 796,
      "sequ": 797,
      "accuracy": 798,
      "functions": 799,
      "##led": 800,
      "art": 801,
      "structure": 802,
      "##astic": 803,
      "##ision": 804,
      "spec": 805,
      "log": 806,
      "tasks": 807,
      "const": 808,
      "##ential": 809,
      "##ments": 810,
      "trans": 811,
      "##utions": 812,
      "##ems": 813,
      "##ected": 814,
      "setting": 815,
      "##ently": 816,
      "some": 817,
      "##arg": 818,
      "study": 819,
      "theore": 820,
      "sparse": 821,
      "##och": 822,
      "loc": 823,
      "statis": 824,
      "##nific": 825,
      "##omp": 826,
      "li": 827,
      "##line": 828,
      "sever": 829,
      "valu": 830,
      "convex": 831,
      "signific": 832,
      "fact": 833,
      "##sive": 834,
      "##ten": 835,
      "improve": 836,
      "regular": 837,
      "##oss": 838,
      "applications": 839,
      "comb": 840,
      "complexity": 841,
      "##NN": 842,
      "##her": 843,
      "obtain": 844,
      "ter": 845,
      "vi": 846,
      "##ables": 847,
      "allow": 848,
      "##ress": 849,
      "depend": 850,
      "several": 851,
      "aut": 852,
      "##ochastic": 853,
      "##gence": 854,
      "system": 855,
      "significant": 856,
      "ag": 857,
      "##ilar": 858,
      "##fin": 859,
      "##ide": 860,
      "partic": 861,
      "typ": 862,
      "loss": 863,
      "approaches": 864,
      "prediction": 865,
      "dom": 866,
      "##vely": 867,
      "vect": 868,
      "##ages": 869,
      "##ign": 870,
      "em": 871,
      "experiments": 872,
      "##vol": 873,
      "##lud": 874,
      "error": 875,
      "##ditional": 876,
      "multip": 877,
      "bet": 878,
      "gradi": 879,
      "Bayesian": 880,
      "##ak": 881,
      "How": 882,
      "cost": 883,
      "adap": 884,
      "##vious": 885,
      "proper": 886,
      "import": 887,
      "most": 888,
      "##urr": 889,
      "##ency": 890,
      "bounds": 891,
      "image": 892,
      "existing": 893,
      "rob": 894,
      "##urther": 895,
      "inference": 896,
      "input": 897,
      "parameters": 898,
      "pl": 899,
      "##ang": 900,
      "maxim": 901,
      "techniques": 902,
      "##its": 903,
      "stochastic": 904,
      "##ty": 905,
      "domain": 906,
      "similar": 907,
      "However": 908,
      "known": 909,
      "##iel": 910,
      "gu": 911,
      "##fy": 912,
      "sample": 913,
      "examp": 914,
      "##uction": 915,
      "##orm": 916,
      "subs": 917,
      "given": 918,
      "##ental": 919,
      "online": 920,
      "particular": 921,
      "##atic": 922,
      "To": 923,
      "combin": 924,
      "expl": 925,
      "then": 926,
      "includ": 927,
      "top": 928,
      "do": 929,
      "simple": 930,
      "tra": 931,
      "any": 932,
      "Ex": 933,
      "pat": 934,
      "better": 935,
      "##ame": 936,
      "##ecti": 937,
      "while": 938,
      "inst": 939,
      "##ific": 940,
      "selection": 941,
      "##eng": 942,
      "regression": 943,
      "nat": 944,
      "case": 945,
      "##ond": 946,
      "##yn": 947,
      "constrain": 948,
      "deri": 949,
      "corr": 950,
      "small": 951,
      "sign": 952,
      "gradient": 953,
      "##ld": 954,
      "##ects": 955,
      "lat": 956,
      "##ences": 957,
      "##ically": 958,
      "requi": 959,
      "spe": 960,
      "##su": 961,
      "previous": 962,
      "cap": 963,
      "identi": 964,
      "representation": 965,
      "##lement": 966,
      "measure": 967,
      "##ish": 968,
      "computational": 969,
      "convergence": 970,
      "local": 971,
      "variables": 972,
      "there": 973,
      "##olic": 974,
      "##ward": 975,
      "SV": 976,
      "stand": 977,
      "##izing": 978,
      "simul": 979,
      "##ib": 980,
      "chall": 981,
      "##sian": 982,
      "dir": 983,
      "multiple": 984,
      "##ness": 985,
      "pos": 986,
      "##ted": 987,
      "sets": 988,
      "##eg": 989,
      "prod": 990,
      "scale": 991,
      "##rough": 992,
      "design": 993,
      "##ases": 994,
      "samples": 995,
      "empir": 996,
      "av": 997,
      "pres": 998,
      "##vari": 999,
      "For": 1000,
      "lay": 1001,
      "##arant": 1002,
      "##arante": 1003,
      "call": 1004,
      "sem": 1005,
      "systems": 1006,
      "guarante": 1007,
      "20": 1008,
      "norm": 1009,
      "ben": 1010,
      "##olog": 1011,
      "parameter": 1012,
      "introduce": 1013,
      "level": 1014,
      "##ances": 1015,
      "sing": 1016,
      "prac": 1017,
      "theoretical": 1018,
      "consis": 1019,
      "recog": 1020,
      "standard": 1021,
      "rate": 1022,
      "Gaus": 1023,
      "##forms": 1024,
      "estimation": 1025,
      "world": 1026,
      "##inal": 1027,
      "resp": 1028,
      "##ledge": 1029,
      "##ured": 1030,
      "##cep": 1031,
      "supervised": 1032,
      "robust": 1033,
      "test": 1034,
      "important": 1035,
      "may": 1036,
      "iter": 1037,
      "so": 1038,
      "##vers": 1039,
      "di": 1040,
      "##ill": 1041,
      "approximation": 1042,
      "polic": 1043,
      "ph": 1044,
      "very": 1045,
      "##rac": 1046,
      "##ix": 1047,
      "att": 1048,
      "##ynam": 1049,
      "##ities": 1050,
      "##sing": 1051,
      "##emp": 1052,
      "##ator": 1053,
      "knowledge": 1054,
      "signal": 1055,
      "classifier": 1056,
      "##tiv": 1057,
      "incre": 1058,
      "##epend": 1059,
      "they": 1060,
      "add": 1061,
      "uni": 1062,
      "statistical": 1063,
      "##are": 1064,
      "probability": 1065,
      "probabil": 1066,
      "It": 1067,
      "##uch": 1068,
      "step": 1069,
      "##val": 1070,
      "##ality": 1071,
      "##vant": 1072,
      "##ateg": 1073,
      "sampling": 1074,
      "outper": 1075,
      "##sible": 1076,
      "##eries": 1077,
      "##ational": 1078,
      "##oun": 1079,
      "through": 1080,
      "##rop": 1081,
      "regret": 1082,
      "strateg": 1083,
      "##chit": 1084,
      "best": 1085,
      "Gaussian": 1086,
      "##anti": 1087,
      "##ral": 1088,
      "sch": 1089,
      "decision": 1090,
      "syn": 1091,
      "terms": 1092,
      "dynam": 1093,
      "##udi": 1094,
      "size": 1095,
      "##ump": 1096,
      "formul": 1097,
      "##low": 1098,
      "##de": 1099,
      "equ": 1100,
      "main": 1101,
      "independ": 1102,
      "##nition": 1103,
      "##urrent": 1104,
      "prior": 1105,
      "##ov": 1106,
      "constr": 1107,
      "##acter": 1108,
      "##old": 1109,
      "##aracter": 1110,
      "##bed": 1111,
      "latent": 1112,
      "##erm": 1113,
      "single": 1114,
      "##ired": 1115,
      "lim": 1116,
      "##ier": 1117,
      "distributions": 1118,
      "factor": 1119,
      "solution": 1120,
      ".,": 1121,
      "beh": 1122,
      "assump": 1123,
      "##uced": 1124,
      "##pport": 1125,
      "character": 1126,
      "coll": 1127,
      "parti": 1128,
      "grou": 1129,
      "enc": 1130,
      "recognition": 1131,
      "##ints": 1132,
      "##sition": 1133,
      "##ss": 1134,
      "compared": 1135,
      "without": 1136,
      "lead": 1137,
      "implement": 1138,
      "pop": 1139,
      "result": 1140,
      "##lied": 1141,
      "bi": 1142,
      "##ower": 1143,
      "vector": 1144,
      "bec": 1145,
      "##uted": 1146,
      "noise": 1147,
      "##ost": 1148,
      "way": 1149,
      "address": 1150,
      "specific": 1151,
      "detection": 1152,
      "technique": 1153,
      "##inary": 1154,
      "##lying": 1155,
      "observ": 1156,
      "SVM": 1157,
      "##chitect": 1158,
      "same": 1159,
      "##econd": 1160,
      "search": 1161,
      "architect": 1162,
      "mak": 1163,
      "extend": 1164,
      "representations": 1165,
      "allows": 1166,
      "often": 1167,
      "context": 1168,
      "##ced": 1169,
      "even": 1170,
      "hand": 1171,
      "$-": 1172,
      "suc": 1173,
      "comm": 1174,
      "Experim": 1175,
      "power": 1176,
      "schem": 1177,
      "##hood": 1178,
      "applied": 1179,
      ")$": 1180,
      "##CA": 1181,
      "##ax": 1182,
      "mean": 1183,
      "avail": 1184,
      "various": 1185,
      "need": 1186,
      "contro": 1187,
      "point": 1188,
      "##let": 1189,
      "##etic": 1190,
      "metric": 1191,
      "output": 1192,
      "recover": 1193,
      "##par": 1194,
      "called": 1195,
      "user": 1196,
      "analyz": 1197,
      "common": 1198,
      "##ough": 1199,
      "properties": 1200,
      "classifiers": 1201,
      "##avi": 1202,
      "##ertain": 1203,
      "significantly": 1204,
      "##eli": 1205,
      "points": 1206,
      "##uld": 1207,
      "objective": 1208,
      "##mark": 1209,
      "lower": 1210,
      "cr": 1211,
      "##ensive": 1212,
      "prove": 1213,
      "embed": 1214,
      "Wh": 1215,
      "##ross": 1216,
      "bu": 1217,
      "autom": 1218,
      "##iter": 1219,
      "##ics": 1220,
      "##aces": 1221,
      "##ff": 1222,
      "##ines": 1223,
      "##ility": 1224,
      "text": 1225,
      "recent": 1226,
      "mem": 1227,
      "##ily": 1228,
      "them": 1229,
      "lik": 1230,
      "describ": 1231,
      "oper": 1232,
      "##lish": 1233,
      "including": 1234,
      "pattern": 1235,
      "##ist": 1236,
      "empirical": 1237,
      "Con": 1238,
      "sequence": 1239,
      "available": 1240,
      "##volution": 1241,
      "challeng": 1242,
      "ep": 1243,
      "distributed": 1244,
      "limit": 1245,
      "math": 1246,
      "explo": 1247,
      "theory": 1248,
      "studi": 1249,
      "research": 1250,
      "##arget": 1251,
      "behavi": 1252,
      "poly": 1253,
      "policy": 1254,
      "##ocus": 1255,
      "achieve": 1256,
      "target": 1257,
      "conc": 1258,
      "defin": 1259,
      "##tig": 1260,
      "conn": 1261,
      "##oint": 1262,
      "proced": 1263,
      "prog": 1264,
      "effecti": 1265,
      "sen": 1266,
      "##ising": 1267,
      "nod": 1268,
      "possible": 1269,
      "##den": 1270,
      "##ef": 1271,
      "##ann": 1272,
      "##imin": 1273,
      "examples": 1274,
      "approximate": 1275,
      "predict": 1276,
      "marg": 1277,
      "sour": 1278,
      "##gn": 1279,
      "##inc": 1280,
      "--": 1281,
      "On": 1282,
      "et": 1283,
      "determ": 1284,
      "find": 1285,
      "modeling": 1286,
      "provides": 1287,
      "consist": 1288,
      "Mark": 1289,
      "focus": 1290,
      "##tically": 1291,
      "##up": 1292,
      "##sitive": 1293,
      "learned": 1294,
      "natural": 1295,
      "pair": 1296,
      "relations": 1297,
      "commun": 1298,
      "generalization": 1299,
      "synth": 1300,
      "if": 1301,
      "interp": 1302,
      "vis": 1303,
      "images": 1304,
      "popular": 1305,
      "good": 1306,
      "sur": 1307,
      "cho": 1308,
      "buil": 1309,
      "compon": 1310,
      "##supervised": 1311,
      "ent": 1312,
      "further": 1313,
      "trained": 1314,
      "require": 1315,
      "##izes": 1316,
      "about": 1317,
      "ful": 1318,
      "##ature": 1319,
      "##cept": 1320,
      "strong": 1321,
      "ke": 1322,
      "##ately": 1323,
      "ens": 1324,
      "view": 1325,
      "band": 1326,
      "three": 1327,
      "##ice": 1328,
      "shown": 1329,
      "##oci": 1330,
      "##omm": 1331,
      "altern": 1332,
      "group": 1333,
      "mi": 1334,
      "##know": 1335,
      "##ually": 1336,
      "##ensor": 1337,
      "able": 1338,
      "fil": 1339,
      "labels": 1340,
      "##known": 1341,
      "unknown": 1342,
      "probabilistic": 1343,
      "##hip": 1344,
      "success": 1345,
      "##ex": 1346,
      "##chmark": 1347,
      "##elihood": 1348,
      "effective": 1349,
      "These": 1350,
      "##idden": 1351,
      "Markov": 1352,
      "binary": 1353,
      "##arch": 1354,
      "application": 1355,
      "obtained": 1356,
      "##ges": 1357,
      "##eous": 1358,
      "conf": 1359,
      "inves": 1360,
      "benchmark": 1361,
      "##pec": 1362,
      "##ract": 1363,
      "##licit": 1364,
      "gre": 1365,
      "##bal": 1366,
      "investig": 1367,
      "hy": 1368,
      "much": 1369,
      "proj": 1370,
      "##ierarch": 1371,
      "via": 1372,
      "##incip": 1373,
      "unsupervised": 1374,
      "value": 1375,
      "fiel": 1376,
      "##epar": 1377,
      "structured": 1378,
      "direct": 1379,
      "##ditions": 1380,
      "efficiently": 1381,
      "##tinu": 1382,
      "regularization": 1383,
      "##lon": 1384,
      "##til": 1385,
      "hum": 1386,
      "##ooth": 1387,
      "##iti": 1388,
      "likelihood": 1389,
      "Rec": 1390,
      "##uring": 1391,
      "users": 1392,
      "quality": 1393,
      "##loy": 1394,
      "derive": 1395,
      "##volutional": 1396,
      "series": 1397,
      "##ably": 1398,
      "spect": 1399,
      "tre": 1400,
      "spars": 1401,
      "near": 1402,
      "support": 1403,
      "##mong": 1404,
      "filter": 1405,
      "##angu": 1406,
      "conditions": 1407,
      "distance": 1408,
      "St": 1409,
      "separ": 1410,
      "##resp": 1411,
      "cod": 1412,
      "associ": 1413,
      "off": 1414,
      "classes": 1415,
      "embedding": 1416,
      "##verage": 1417,
      "bo": 1418,
      "##linear": 1419,
      "layer": 1420,
      "guarantees": 1421,
      "bl": 1422,
      "run": 1423,
      "weight": 1424,
      "diffic": 1425,
      "Fin": 1426,
      "##erg": 1427,
      "post": 1428,
      "decomp": 1429,
      "val": 1430,
      "More": 1431,
      "Further": 1432,
      "ret": 1433,
      "##ets": 1434,
      "##silon": 1435,
      "corresp": 1436,
      "ori": 1437,
      "##osition": 1438,
      "##tics": 1439,
      "An": 1440,
      "##mm": 1441,
      "constraints": 1442,
      "go": 1443,
      "hierarch": 1444,
      "##row": 1445,
      "hidden": 1446,
      "##ink": 1447,
      "As": 1448,
      "was": 1449,
      "evaluation": 1450,
      "due": 1451,
      "##esting": 1452,
      "tool": 1453,
      "valid": 1454,
      "##por": 1455,
      "continu": 1456,
      "uses": 1457,
      "##omial": 1458,
      "langu": 1459,
      "temp": 1460,
      "##ommend": 1461,
      "speed": 1462,
      "##ount": 1463,
      "ques": 1464,
      "mixt": 1465,
      "second": 1466,
      "201": 1467,
      "outperforms": 1468,
      "est": 1469,
      "interpret": 1470,
      "give": 1471,
      "am": 1472,
      "fast": 1473,
      "exper": 1474,
      "discus": 1475,
      "does": 1476,
      "##ixed": 1477,
      "match": 1478,
      "among": 1479,
      "glo": 1480,
      "##ablish": 1481,
      "related": 1482,
      "##ub": 1483,
      "princip": 1484,
      "##rimin": 1485,
      "##ST": 1486,
      "##ron": 1487,
      "pot": 1488,
      "means": 1489,
      "establish": 1490,
      "fam": 1491,
      "##ections": 1492,
      "##ucing": 1493,
      "evaluate": 1494,
      "synthetic": 1495,
      "end": 1496,
      "eas": 1497,
      "mis": 1498,
      "visual": 1499,
      "solve": 1500,
      "upd": 1501,
      "compe": 1502,
      "estimate": 1503,
      "explor": 1504,
      "##not": 1505,
      "recently": 1506,
      "priv": 1507,
      "##te": 1508,
      "##atch": 1509,
      "smooth": 1510,
      "capt": 1511,
      "joint": 1512,
      "fas": 1513,
      "##entially": 1514,
      "##ison": 1515,
      "control": 1516,
      "Finally": 1517,
      "##allel": 1518,
      "underlying": 1519,
      "similarity": 1520,
      "##to": 1521,
      "rele": 1522,
      "##ord": 1523,
      "##veness": 1524,
      "like": 1525,
      "recommend": 1526,
      "ill": 1527,
      "procedure": 1528,
      "experimental": 1529,
      "rem": 1530,
      "##rices": 1531,
      "sparsity": 1532,
      "tree": 1533,
      "play": 1534,
      "key": 1535,
      "few": 1536,
      "hard": 1537,
      "util": 1538,
      "##oral": 1539,
      "invol": 1540,
      "apply": 1541,
      "##uces": 1542,
      "useful": 1543,
      "independent": 1544,
      "human": 1545,
      "cases": 1546,
      "wid": 1547,
      "quanti": 1548,
      "descent": 1549,
      "##MM": 1550,
      "parallel": 1551,
      "##ficiency": 1552,
      "within": 1553,
      "matrices": 1554,
      "automatic": 1555,
      "##ety": 1556,
      "exact": 1557,
      "he": 1558,
      "encod": 1559,
      "##und": 1560,
      "##one": 1561,
      "##ollow": 1562,
      "addition": 1563,
      "subsp": 1564,
      "identify": 1565,
      "##gment": 1566,
      "##pping": 1567,
      "yiel": 1568,
      "adaptive": 1569,
      "polyn": 1570,
      "advant": 1571,
      "interest": 1572,
      "discover": 1573,
      "##ause": 1574,
      "memory": 1575,
      "observed": 1576,
      "##ology": 1577,
      "difficul": 1578,
      "orig": 1579,
      "##ock": 1580,
      "discrimin": 1581,
      "processing": 1582,
      "measures": 1583,
      "correl": 1584,
      "##ivid": 1585,
      "##isk": 1586,
      "ide": 1587,
      "strategy": 1588,
      "##ocum": 1589,
      "make": 1590,
      "incor": 1591,
      "interac": 1592,
      "##iction": 1593,
      "weigh": 1594,
      "ensem": 1595,
      "bel": 1596,
      "efficiency": 1597,
      "accurate": 1598,
      "maximum": 1599,
      "##ighb": 1600,
      "individ": 1601,
      "comparison": 1602,
      "vectors": 1603,
      "example": 1604,
      "practical": 1605,
      "##lu": 1606,
      "##etric": 1607,
      "suf": 1608,
      "##fied": 1609,
      "##ces": 1610,
      "scheme": 1611,
      "##ass": 1612,
      "language": 1613,
      "will": 1614,
      "resulting": 1615,
      "continuous": 1616,
      "##ased": 1617,
      "topic": 1618,
      "##rip": 1619,
      "##fore": 1620,
      "values": 1621,
      "analyze": 1622,
      "docum": 1623,
      "risk": 1624,
      "##ators": 1625,
      "range": 1626,
      "developed": 1627,
      "squ": 1628,
      "##wise": 1629,
      "scen": 1630,
      "assum": 1631,
      "convolutional": 1632,
      "reward": 1633,
      "unc": 1634,
      "numer": 1635,
      "extension": 1636,
      "variable": 1637,
      "ge": 1638,
      "achieves": 1639,
      "##ead": 1640,
      "##ains": 1641,
      "compare": 1642,
      "epsilon": 1643,
      "Learn": 1644,
      "clusters": 1645,
      "##vir": 1646,
      "##ould": 1647,
      "##more": 1648,
      "##force": 1649,
      "effectiveness": 1650,
      "long": 1651,
      "reduction": 1652,
      "diction": 1653,
      "##ft": 1654,
      "employ": 1655,
      "##viron": 1656,
      "super": 1657,
      "determin": 1658,
      "those": 1659,
      "term": 1660,
      "polynomial": 1661,
      "Al": 1662,
      "architecture": 1663,
      "competi": 1664,
      "##uting": 1665,
      "integ": 1666,
      "underst": 1667,
      "ranking": 1668,
      "##raction": 1669,
      "goal": 1670,
      "cent": 1671,
      "follow": 1672,
      "solving": 1673,
      "GP": 1674,
      "##ustr": 1675,
      "graphs": 1676,
      "assumptions": 1677,
      "##ecting": 1678,
      "discuss": 1679,
      "##cc": 1680,
      "incorpor": 1681,
      "thus": 1682,
      "environ": 1683,
      "individual": 1684,
      "object": 1685,
      "global": 1686,
      "Learning": 1687,
      "##ether": 1688,
      "manif": 1689,
      "objects": 1690,
      "minimization": 1691,
      "certain": 1692,
      "prec": 1693,
      "recon": 1694,
      "version": 1695,
      "patterns": 1696,
      "posteri": 1697,
      "##sp": 1698,
      "neighb": 1699,
      "aim": 1700,
      "initi": 1701,
      "conditional": 1702,
      "##NNs": 1703,
      "diver": 1704,
      "expon": 1705,
      "variety": 1706,
      "Moreover": 1707,
      "{\\": 1708,
      "asy": 1709,
      "##forcement": 1710,
      "behavior": 1711,
      "relationship": 1712,
      "kernels": 1713,
      "challenging": 1714,
      "tak": 1715,
      "##ner": 1716,
      "##inforcement": 1717,
      "rest": 1718,
      "domains": 1719,
      "sug": 1720,
      "##ject": 1721,
      "finite": 1722,
      "Furthermore": 1723,
      "correspon": 1724,
      "##bit": 1725,
      "suit": 1726,
      "##rete": 1727,
      "}$": 1728,
      "##ither": 1729,
      "##ible": 1730,
      "nois": 1731,
      "least": 1732,
      "temporal": 1733,
      "inf": 1734,
      "##reg": 1735,
      "deg": 1736,
      "contrib": 1737,
      "word": 1738,
      "##pper": 1739,
      "directly": 1740,
      "faster": 1741,
      "##ensity": 1742,
      "seman": 1743,
      "nonlinear": 1744,
      "computationally": 1745,
      "requires": 1746,
      "condition": 1747,
      "construct": 1748,
      "observations": 1749,
      "##asing": 1750,
      "source": 1751,
      "##rary": 1752,
      "##aneous": 1753,
      "feed": 1754,
      "mixture": 1755,
      "##ategor": 1756,
      "highly": 1757,
      "##ied": 1758,
      "practi": 1759,
      "hyper": 1760,
      "original": 1761,
      "predictive": 1762,
      "types": 1763,
      "reconstr": 1764,
      "##agation": 1765,
      "##)$": 1766,
      "##ared": 1767,
      "Network": 1768,
      "settings": 1769,
      "across": 1770,
      "cal": 1771,
      "pers": 1772,
      "##paramet": 1773,
      "illustr": 1774,
      "arbit": 1775,
      "10": 1776,
      "##osed": 1777,
      "finding": 1778,
      "liter": 1779,
      "shows": 1780,
      "solutions": 1781,
      "subset": 1782,
      "ed": 1783,
      "describe": 1784,
      "posterior": 1785,
      "active": 1786,
      "##ocial": 1787,
      "categor": 1788,
      "##echan": 1789,
      "type": 1790,
      "nodes": 1791,
      "spectral": 1792,
      "hierarchical": 1793,
      "Pro": 1794,
      "fre": 1795,
      "##raph": 1796,
      "current": 1797,
      "generative": 1798,
      "##back": 1799,
      "##aging": 1800,
      "By": 1801,
      "structures": 1802,
      "weights": 1803,
      "$,": 1804,
      "$.": 1805,
      "found": 1806,
      "wide": 1807,
      "##esis": 1808,
      "variational": 1809,
      "semi": 1810,
      "family": 1811,
      "Ad": 1812,
      "fixed": 1813,
      "tensor": 1814,
      "special": 1815,
      "program": 1816,
      "##edi": 1817,
      "##ism": 1818,
      "##atively": 1819,
      "improved": 1820,
      "equi": 1821,
      "##taneous": 1822,
      "exploit": 1823,
      "associated": 1824,
      "De": 1825,
      "##ince": 1826,
      "explicit": 1827,
      "instances": 1828,
      "##tional": 1829,
      "reinforcement": 1830,
      "neg": 1831,
      "computer": 1832,
      "layers": 1833,
      "ensemble": 1834,
      "prom": 1835,
      "transform": 1836,
      "##ypoth": 1837,
      "dri": 1838,
      "ell": 1839,
      "##ules": 1840,
      "indic": 1841,
      "literature": 1842,
      "##DP": 1843,
      "words": 1844,
      "adapt": 1845,
      "mechan": 1846,
      "arm": 1847,
      "Comp": 1848,
      "##ry": 1849,
      "##ants": 1850,
      "leads": 1851,
      "back": 1852,
      "upper": 1853,
      "expected": 1854,
      "traditional": 1855,
      "bandit": 1856,
      "noisy": 1857,
      "potential": 1858,
      "presented": 1859,
      "Experiments": 1860,
      "widely": 1861,
      "hypoth": 1862,
      "being": 1863,
      "understand": 1864,
      "den": 1865,
      "##ather": 1866,
      "signals": 1867,
      "dictionary": 1868,
      "Un": 1869,
      "higher": 1870,
      "respect": 1871,
      "field": 1872,
      "##ys": 1873,
      "computing": 1874,
      "atten": 1875,
      "link": 1876,
      "##av": 1877,
      "^{": 1878,
      "rates": 1879,
      "density": 1880,
      "pur": 1881,
      "##DA": 1882,
      "social": 1883,
      "times": 1884,
      "el": 1885,
      "##ind": 1886,
      "##ified": 1887,
      "dynamic": 1888,
      "formulation": 1889,
      "less": 1890,
      "nam": 1891,
      "initial": 1892,
      "Mach": 1893,
      "##ests": 1894,
      "covari": 1895,
      "simultaneous": 1896,
      "##rid": 1897,
      "labeled": 1898,
      "Ne": 1899,
      "##urn": 1900,
      "##mpto": 1901,
      "dimensionality": 1902,
      "studies": 1903,
      "margin": 1904,
      "either": 1905,
      "experiment": 1906,
      "##enge": 1907,
      "##ason": 1908,
      "discrete": 1909,
      "ability": 1910,
      "were": 1911,
      "whose": 1912,
      "items": 1913,
      "reduce": 1914,
      "difficult": 1915,
      "##ange": 1916,
      "presents": 1917,
      "processes": 1918,
      "datab": 1919,
      "because": 1920,
      "defined": 1921,
      "adv": 1922,
      "assumption": 1923,
      "advers": 1924,
      "extract": 1925,
      "required": 1926,
      "occ": 1927,
      "##ering": 1928,
      "##ergy": 1929,
      "##ery": 1930,
      "sequences": 1931,
      "normal": 1932,
      "making": 1933,
      "question": 1934,
      "sens": 1935,
      "##ule": 1936,
      "concept": 1937,
      "positive": 1938,
      "##ength": 1939,
      "speech": 1940,
      "asympto": 1941,
      "gam": 1942,
      "generated": 1943,
      "##ially": 1944,
      "introduced": 1945,
      "Experimental": 1946,
      "successful": 1947,
      "improvement": 1948,
      "instance": 1949,
      "components": 1950,
      "investigate": 1951,
      "practice": 1952,
      "attention": 1953,
      "##gest": 1954,
      "##ming": 1955,
      "##enal": 1956,
      "activ": 1957,
      "limited": 1958,
      "caus": 1959,
      "scenari": 1960,
      "average": 1961,
      "##ior": 1962,
      "##lete": 1963,
      "achieved": 1964,
      "satis": 1965,
      "deal": 1966,
      "competitive": 1967,
      "equival": 1968,
      "##till": 1969,
      "weak": 1970,
      "strategies": 1971,
      "makes": 1972,
      "MA": 1973,
      "##itting": 1974,
      "contr": 1975,
      "200": 1976,
      "corresponding": 1977,
      "hel": 1978,
      "##cal": 1979,
      "graphical": 1980,
      "attrib": 1981,
      "increasing": 1982,
      "outperform": 1983,
      "enti": 1984,
      "correct": 1985,
      "recovery": 1986,
      "respon": 1987,
      "(\\": 1988,
      "frequ": 1989,
      "lo": 1990,
      "##jor": 1991,
      "energy": 1992,
      "classical": 1993,
      "sequential": 1994,
      "##ecess": 1995,
      "combination": 1996,
      "mon": 1997,
      "##ulation": 1998,
      "While": 1999,
      "decomposition": 2000,
      "penal": 2001,
      "##ake": 2002,
      "spaces": 2003,
      "compute": 2004,
      "sufficient": 2005,
      "manifold": 2006,
      "batch": 2007,
      "variance": 2008,
      "block": 2009,
      "free": 2010,
      "##sw": 2011,
      "##onal": 2012,
      "improves": 2013,
      "##oring": 2014,
      "regularized": 2015,
      "##ropy": 2016,
      "relax": 2017,
      "##ler": 2018,
      "##ions": 2019,
      "emph": 2020,
      "statistics": 2021,
      "dependent": 2022,
      "stre": 2023,
      "dual": 2024,
      "learns": 2025,
      "estimator": 2026,
      "great": 2027,
      "restric": 2028,
      "iteration": 2029,
      "Deep": 2030,
      "Ch": 2031,
      "##ive": 2032,
      "##abor": 2033,
      "##Ms": 2034,
      "cons": 2035,
      "subspace": 2036,
      "during": 2037,
      "major": 2038,
      "considered": 2039,
      "ML": 2040,
      "##oid": 2041,
      "typically": 2042,
      "geom": 2043,
      "##ears": 2044,
      "reason": 2045,
      "def": 2046,
      "uniform": 2047,
      "arbitrary": 2048,
      "Cl": 2049,
      "##ps": 2050,
      "##ware": 2051,
      "coun": 2052,
      "constant": 2053,
      "path": 2054,
      "##raw": 2055,
      "provided": 2056,
      "studied": 2057,
      "##ute": 2058,
      "automatically": 2059,
      "##rt": 2060,
      "estimates": 2061,
      "works": 2062,
      "factors": 2063,
      "rules": 2064,
      "tun": 2065,
      "answ": 2066,
      "challenge": 2067,
      "factorization": 2068,
      "##art": 2069,
      "mining": 2070,
      "preser": 2071,
      "##sign": 2072,
      "unl": 2073,
      "evol": 2074,
      "##resh": 2075,
      "##omes": 2076,
      "action": 2077,
      "EM": 2078,
      "query": 2079,
      "predictions": 2080,
      "implementation": 2081,
      "##ick": 2082,
      "segment": 2083,
      "agg": 2084,
      "pairwise": 2085,
      "ell_": 2086,
      "##mod": 2087,
      "##ices": 2088,
      "additional": 2089,
      "weighted": 2090,
      "semantic": 2091,
      "sq": 2092,
      "##ays": 2093,
      "communic": 2094,
      "sqrt": 2095,
      "Here": 2096,
      "##ference": 2097,
      "recurrent": 2098,
      "product": 2099,
      "partition": 2100,
      "full": 2101,
      "basis": 2102,
      "again": 2103,
      "Using": 2104,
      "mul": 2105,
      "assign": 2106,
      "trade": 2107,
      "numerical": 2108,
      "superior": 2109,
      "fully": 2110,
      "negative": 2111,
      "cur": 2112,
      "##ning": 2113,
      "##fter": 2114,
      "however": 2115,
      "privacy": 2116,
      "necess": 2117,
      "tri": 2118,
      "##usion": 2119,
      "prim": 2120,
      "explore": 2121,
      "##ording": 2122,
      "performs": 2123,
      "chang": 2124,
      "architectures": 2125,
      "entropy": 2126,
      "First": 2127,
      "vide": 2128,
      "sum": 2129,
      "designed": 2130,
      "alternative": 2131,
      "matching": 2132,
      "relevant": 2133,
      "simultaneously": 2134,
      "exponential": 2135,
      "PCA": 2136,
      "vision": 2137,
      "conven": 2138,
      "relative": 2139,
      "##finite": 2140,
      "##variate": 2141,
      "belie": 2142,
      "suitable": 2143,
      "One": 2144,
      "consistent": 2145,
      "illustrate": 2146,
      "marginal": 2147,
      "filtering": 2148,
      "discriminative": 2149,
      "still": 2150,
      "##pri": 2151,
      "scalable": 2152,
      "draw": 2153,
      "##utes": 2154,
      "##ological": 2155,
      "fac": 2156,
      "flex": 2157,
      "open": 2158,
      "property": 2159,
      "dynamics": 2160,
      "exploration": 2161,
      "##ify": 2162,
      "queries": 2163,
      "auto": 2164,
      "missing": 2165,
      "##ordin": 2166,
      "Neural": 2167,
      "contrast": 2168,
      "##rie": 2169,
      "part": 2170,
      "##sequ": 2171,
      "true": 2172,
      "Spec": 2173,
      "##GD": 2174,
      "ser": 2175,
      "##hib": 2176,
      "##veal": 2177,
      "There": 2178,
      "##ficial": 2179,
      "parametric": 2180,
      "environment": 2181,
      "ii": 2182,
      "bounded": 2183,
      "constraint": 2184,
      "##AR": 2185,
      "reveal": 2186,
      "component": 2187,
      "appropri": 2188,
      "larg": 2189,
      "empirically": 2190,
      "---": 2191,
      "against": 2192,
      "ra": 2193,
      "##edy": 2194,
      "motiv": 2195,
      "##of": 2196,
      "##MF": 2197,
      "short": 2198,
      "descrip": 2199,
      "advantage": 2200,
      "eig": 2201,
      "})$": 2202,
      "previously": 2203,
      "robustness": 2204,
      "suggest": 2205,
      "learner": 2206,
      "##though": 2207,
      "report": 2208,
      "contain": 2209,
      "au": 2210,
      "iterative": 2211,
      "trees": 2212,
      "covariance": 2213,
      "/\\": 2214,
      "ever": 2215,
      "pub": 2216,
      "##ithm": 2217,
      "cond": 2218,
      "basel": 2219,
      "##iterion": 2220,
      "##ero": 2221,
      "##enting": 2222,
      "tot": 2223,
      "machines": 2224,
      "neighbor": 2225,
      "##stanti": 2226,
      "##abeled": 2227,
      "cross": 2228,
      "##els": 2229,
      "benef": 2230,
      "When": 2231,
      "retrie": 2232,
      "amount": 2233,
      "uncertain": 2234,
      "Man": 2235,
      "fund": 2236,
      "thresh": 2237,
      "invari": 2238,
      "anom": 2239,
      "probabilities": 2240,
      "capture": 2241,
      "feedback": 2242,
      "col": 2243,
      "agent": 2244,
      "choice": 2245,
      "del": 2246,
      "##bers": 2247,
      "coordin": 2248,
      "importance": 2249,
      "derived": 2250,
      "idea": 2251,
      "grow": 2252,
      "rule": 2253,
      "sent": 2254,
      "##ta": 2255,
      "##Net": 2256,
      "comple": 2257,
      "sci": 2258,
      "substanti": 2259,
      "##view": 2260,
      "detect": 2261,
      "Specific": 2262,
      "game": 2263,
      "##like": 2264,
      "node": 2265,
      "rather": 2266,
      "take": 2267,
      "##man": 2268,
      "##lear": 2269,
      "fut": 2270,
      "##red": 2271,
      "could": 2272,
      "repres": 2273,
      "content": 2274,
      "quad": 2275,
      "adversari": 2276,
      "Specifically": 2277,
      "Mod": 2278,
      "annot": 2279,
      "usually": 2280,
      "arg": 2281,
      "##encies": 2282,
      "identification": 2283,
      "integr": 2284,
      "fundam": 2285,
      "With": 2286,
      "ele": 2287,
      "##rem": 2288,
      "propagation": 2289,
      "estimating": 2290,
      "##pecially": 2291,
      "document": 2292,
      "since": 2293,
      "actions": 2294,
      "expression": 2295,
      "##AC": 2296,
      "spati": 2297,
      "eng": 2298,
      "tran": 2299,
      "improvements": 2300,
      "future": 2301,
      "##pr": 2302,
      "##RF": 2303,
      "##onom": 2304,
      "extraction": 2305,
      "degree": 2306,
      "##modular": 2307,
      "insi": 2308,
      "generate": 2309,
      "reconstruction": 2310,
      "unlabeled": 2311,
      "Multi": 2312,
      "showing": 2313,
      "##round": 2314,
      "measurements": 2315,
      "adaptation": 2316,
      "aff": 2317,
      "##off": 2318,
      "station": 2319,
      "made": 2320,
      "##istics": 2321,
      "database": 2322,
      "##iting": 2323,
      "criterion": 2324,
      "cre": 2325,
      "##sue": 2326,
      "should": 2327,
      "powerful": 2328,
      "challenges": 2329,
      "hypothesis": 2330,
      "Machine": 2331,
      "total": 2332,
      "##ries": 2333,
      "variants": 2334,
      "##asso": 2335,
      "structural": 2336,
      "aggreg": 2337,
      "##ok": 2338,
      "##ins": 2339,
      "who": 2340,
      "mapping": 2341,
      "understanding": 2342,
      "##assi": 2343,
      "especially": 2344,
      "soft": 2345,
      "relationships": 2346,
      "testing": 2347,
      "##ob": 2348,
      "states": 2349,
      "##osting": 2350,
      "##ogen": 2351,
      "expect": 2352,
      "transfer": 2353,
      "steps": 2354,
      "##ma": 2355,
      "##ares": 2356,
      "coef": 2357,
      "##ders": 2358,
      "instead": 2359,
      "communication": 2360,
      "fail": 2361,
      "##ressive": 2362,
      "dev": 2363,
      "exist": 2364,
      "generalized": 2365,
      "conventional": 2366,
      "MC": 2367,
      "##ings": 2368,
      "recommendation": 2369,
      "influ": 2370,
      "include": 2371,
      "tools": 2372,
      "quadra": 2373,
      "##verse": 2374,
      "enables": 2375,
      "minimizing": 2376,
      "simulated": 2377,
      "eigen": 2378,
      "every": 2379,
      "cannot": 2380,
      "arti": 2381,
      "artic": 2382,
      "units": 2383,
      "comparable": 2384,
      "agents": 2385,
      "##parametric": 2386,
      "hist": 2387,
      "##izer": 2388,
      "asp": 2389,
      "ess": 2390,
      "produce": 2391,
      "##eler": 2392,
      "exam": 2393,
      "##anced": 2394,
      "##fying": 2395,
      "schemes": 2396,
      "appropriate": 2397,
      "years": 2398,
      "performed": 2399,
      "access": 2400,
      "predicting": 2401,
      "track": 2402,
      "estimated": 2403,
      "dimensions": 2404,
      "En": 2405,
      "cri": 2406,
      "outli": 2407,
      "manner": 2408,
      "minimum": 2409,
      "mechanism": 2410,
      "CNN": 2411,
      "sit": 2412,
      "##sib": 2413,
      "##osen": 2414,
      "nonparametric": 2415,
      "completion": 2416,
      "fundamental": 2417,
      "bro": 2418,
      "variant": 2419,
      "guarantee": 2420,
      "define": 2421,
      "Ma": 2422,
      "providing": 2423,
      "policies": 2424,
      "sensitive": 2425,
      "coding": 2426,
      "yields": 2427,
      "calc": 2428,
      "stream": 2429,
      "##00": 2430,
      "##urally": 2431,
      "reduced": 2432,
      "partial": 2433,
      "easily": 2434,
      "games": 2435,
      "##ses": 2436,
      "demonstrated": 2437,
      "heur": 2438,
      "Su": 2439,
      "act": 2440,
      "correlation": 2441,
      "yet": 2442,
      "##nos": 2443,
      "##arithm": 2444,
      "prov": 2445,
      "proof": 2446,
      "##olds": 2447,
      "conduct": 2448,
      "##ition": 2449,
      "issue": 2450,
      "what": 2451,
      "whether": 2452,
      "##fort": 2453,
      "score": 2454,
      "acceler": 2455,
      "extrem": 2456,
      "avoid": 2457,
      "gap": 2458,
      "##come": 2459,
      "##osing": 2460,
      "effect": 2461,
      "update": 2462,
      "quadratic": 2463,
      "notion": 2464,
      "interesting": 2465,
      "greedy": 2466,
      "projection": 2467,
      "retrieval": 2468,
      "adversarial": 2469,
      "Second": 2470,
      "car": 2471,
      "rece": 2472,
      "rely": 2473,
      "selected": 2474,
      "deterministic": 2475,
      "purp": 2476,
      "##tur": 2477,
      "help": 2478,
      "Many": 2479,
      "Des": 2480,
      "Dir": 2481,
      "RB": 2482,
      "zero": 2483,
      "##pite": 2484,
      "proxim": 2485,
      "account": 2486,
      "submodular": 2487,
      "evaluated": 2488,
      "community": 2489,
      "length": 2490,
      "valued": 2491,
      "sources": 2492,
      "gain": 2493,
      "##bi": 2494,
      "##tit": 2495,
      "##ata": 2496,
      "errors": 2497,
      "nature": 2498,
      "controll": 2499,
      "metrics": 2500,
      "insigh": 2501,
      "##ging": 2502,
      "##equ": 2503,
      "hash": 2504,
      "programming": 2505,
      "asymptotic": 2506,
      "attributes": 2507,
      "segmentation": 2508,
      "##lies": 2509,
      "web": 2510,
      "multivariate": 2511,
      "constrained": 2512,
      "necessary": 2513,
      "SP": 2514,
      "##itud": 2515,
      "close": 2516,
      "extensive": 2517,
      "logistic": 2518,
      "causal": 2519,
      "evid": 2520,
      "select": 2521,
      "observation": 2522,
      "consistency": 2523,
      "##spired": 2524,
      "video": 2525,
      "must": 2526,
      "stability": 2527,
      "Then": 2528,
      "chosen": 2529,
      "naturally": 2530,
      "diag": 2531,
      "build": 2532,
      "##ug": 2533,
      "##oder": 2534,
      "##other": 2535,
      "techn": 2536,
      "attemp": 2537,
      "##aving": 2538,
      "approximations": 2539,
      "logarithm": 2540,
      "collabor": 2541,
      "magn": 2542,
      "change": 2543,
      "reli": 2544,
      "depends": 2545,
      "namely": 2546,
      "Such": 2547,
      "##most": 2548,
      "chann": 2549,
      "formal": 2550,
      "gives": 2551,
      "particularly": 2552,
      "bias": 2553,
      "become": 2554,
      "##IST": 2555,
      "stage": 2556,
      "##ressed": 2557,
      "advantages": 2558,
      "four": 2559,
      "##tively": 2560,
      "resour": 2561,
      "basic": 2562,
      "pertur": 2563,
      "effectively": 2564,
      "fields": 2565,
      "belief": 2566,
      "##fies": 2567,
      "according": 2568,
      "construction": 2569,
      "promising": 2570,
      "larger": 2571,
      "stationary": 2572,
      "AD": 2573,
      "Mon": 2574,
      "vary": 2575,
      "ones": 2576,
      "estimators": 2577,
      "boosting": 2578,
      "contribution": 2579,
      "Networks": 2580,
      "engine": 2581,
      "##ector": 2582,
      "pool": 2583,
      "uncertainty": 2584,
      "tight": 2585,
      "exhib": 2586,
      "functional": 2587,
      "topics": 2588,
      "handle": 2589,
      "equivalent": 2590,
      "applying": 2591,
      "assess": 2592,
      "maintain": 2593,
      "pairs": 2594,
      "documents": 2595,
      "response": 2596,
      "changes": 2597,
      "almost": 2598,
      "review": 2599,
      "complete": 2600,
      "generally": 2601,
      "difference": 2602,
      "mathcal": 2603,
      "sense": 2604,
      "running": 2605,
      "after": 2606,
      "forec": 2607,
      "##idence": 2608,
      "item": 2609,
      "transl": 2610,
      "theoretically": 2611,
      "inputs": 2612,
      "strongly": 2613,
      "DP": 2614,
      "prote": 2615,
      "summ": 2616,
      "easy": 2617,
      "recei": 2618,
      "##oost": 2619,
      "##ores": 2620,
      "##etry": 2621,
      "generalize": 2622,
      "scales": 2623,
      "squares": 2624,
      "explicitly": 2625,
      "public": 2626,
      "SGD": 2627,
      "sk": 2628,
      "along": 2629,
      "Gi": 2630,
      "here": 2631,
      "##ML": 2632,
      "##izations": 2633,
      "resol": 2634,
      "collection": 2635,
      "meaning": 2636,
      "Recently": 2637,
      "Although": 2638,
      "sensing": 2639,
      "big": 2640,
      "far": 2641,
      "supp": 2642,
      "##umn": 2643,
      "base": 2644,
      "optimize": 2645,
      "regard": 2646,
      "dependence": 2647,
      "##ibility": 2648,
      "embeddings": 2649,
      "##lac": 2650,
      "proposes": 2651,
      "solved": 2652,
      "detail": 2653,
      "implemented": 2654,
      "building": 2655,
      "private": 2656,
      "elements": 2657,
      "situ": 2658,
      "##OC": 2659,
      "shap": 2660,
      "performing": 2661,
      "prefer": 2662,
      "maximization": 2663,
      "expert": 2664,
      "Given": 2665,
      "mess": 2666,
      "##ration": 2667,
      "issu": 2668,
      "##arily": 2669,
      "max": 2670,
      "possib": 2671,
      "divergence": 2672,
      "LST": 2673,
      "would": 2674,
      "##SS": 2675,
      "##ank": 2676,
      "prot": 2677,
      "presence": 2678,
      "mathb": 2679,
      "groups": 2680,
      "Pr": 2681,
      "UC": 2682,
      "jointly": 2683,
      "interactions": 2684,
      "column": 2685,
      "##itude": 2686,
      "Car": 2687,
      "Ext": 2688,
      "##Ns": 2689,
      "##iteri": 2690,
      "inform": 2691,
      "phase": 2692,
      "construc": 2693,
      "assume": 2694,
      "persp": 2695,
      "##iteria": 2696,
      "##brid": 2697,
      "enh": 2698,
      "relational": 2699,
      "criteria": 2700,
      "connection": 2701,
      "At": 2702,
      "##rog": 2703,
      "##elf": 2704,
      "alph": 2705,
      "##aries": 2706,
      "adop": 2707,
      "allowing": 2708,
      "principle": 2709,
      "discovery": 2710,
      "Res": 2711,
      "randomized": 2712,
      "phys": 2713,
      "entries": 2714,
      "Sp": 2715,
      "rating": 2716,
      "##{\\": 2717,
      "tog": 2718,
      "##arities": 2719,
      "represented": 2720,
      "consists": 2721,
      "nearest": 2722,
      "Most": 2723,
      "##read": 2724,
      "##own": 2725,
      "events": 2726,
      "combine": 2727,
      "##ectively": 2728,
      "scenarios": 2729,
      "Emp": 2730,
      "RNN": 2731,
      "##alog": 2732,
      "precision": 2733,
      "armed": 2734,
      "calcul": 2735,
      "together": 2736,
      "NMF": 2737,
      "##MC": 2738,
      "shar": 2739,
      "computed": 2740,
      "commonly": 2741,
      "yield": 2742,
      "successfully": 2743,
      "evidence": 2744,
      "19": 2745,
      "turn": 2746,
      "##ove": 2747,
      "expensive": 2748,
      "##atives": 2749,
      "tested": 2750,
      "following": 2751,
      "issues": 2752,
      "refer": 2753,
      "generic": 2754,
      "theoretic": 2755,
      "dependencies": 2756,
      "combining": 2757,
      "utility": 2758,
      "central": 2759,
      "}(": 2760,
      "role": 2761,
      "direction": 2762,
      "questions": 2763,
      "takes": 2764,
      "purpose": 2765,
      "##tle": 2766,
      "optimizing": 2767,
      "operator": 2768,
      "experts": 2769,
      "logarithmic": 2770,
      "magnitude": 2771,
      "MI": 2772,
      "Sh": 2773,
      "##sitions": 2774,
      "algorithmic": 2775,
      "event": 2776,
      "achieving": 2777,
      "##herent": 2778,
      "increase": 2779,
      "driven": 2780,
      "Based": 2781,
      "DNN": 2782,
      "mut": 2783,
      "mill": 2784,
      "tests": 2785,
      "##ises": 2786,
      "##chron": 2787,
      "##veraging": 2788,
      "parad": 2789,
      "ground": 2790,
      "confidence": 2791,
      "code": 2792,
      "Carlo": 2793,
      "fav": 2794,
      "med": 2795,
      "##son": 2796,
      "##RL": 2797,
      "##isation": 2798,
      "arms": 2799,
      "upon": 2800,
      "##mmetric": 2801,
      "collaborative": 2802,
      "Monte": 2803,
      "HMM": 2804,
      "updates": 2805,
      "spatial": 2806,
      "artificial": 2807,
      "broad": 2808,
      "ear": 2809,
      "rati": 2810,
      "##eter": 2811,
      "##rams": 2812,
      "pati": 2813,
      "regions": 2814,
      "self": 2815,
      "transformation": 2816,
      "penalty": 2817,
      "invariant": 2818,
      "paradig": 2819,
      "MN": 2820,
      "Re": 2821,
      "mom": 2822,
      "te": 2823,
      "##assive": 2824,
      "improving": 2825,
      "minimize": 2826,
      "minimax": 2827,
      "smaller": 2828,
      "eigenv": 2829,
      "Dirich": 2830,
      "perturb": 2831,
      "drop": 2832,
      "fit": 2833,
      "face": 2834,
      "line": 2835,
      "##umer": 2836,
      "labeling": 2837,
      "auth": 2838,
      "therefore": 2839,
      "mathem": 2840,
      "article": 2841,
      "perspective": 2842,
      "Dirichlet": 2843,
      "rich": 2844,
      "stor": 2845,
      "diff": 2846,
      "converge": 2847,
      "converges": 2848,
      "##cepts": 2849,
      "outputs": 2850,
      "evolution": 2851,
      "autoenc": 2852,
      "Empir": 2853,
      "LDA": 2854,
      "brain": 2855,
      "##mann": 2856,
      "toward": 2857,
      "##andid": 2858,
      "costs": 2859,
      "simulation": 2860,
      "aims": 2861,
      "Unlike": 2862,
      "##ogeneous": 2863,
      "critical": 2864,
      "Mo": 2865,
      "infinite": 2866,
      "gene": 2867,
      "combined": 2868,
      "Exp": 2869,
      "levels": 2870,
      "hybrid": 2871,
      "interpretation": 2872,
      "CP": 2873,
      "past": 2874,
      "##light": 2875,
      "##stra": 2876,
      "##ime": 2877,
      "subspaces": 2878,
      "interaction": 2879,
      "candid": 2880,
      "side": 2881,
      "##ways": 2882,
      "generation": 2883,
      "overall": 2884,
      "fa": 2885,
      "tack": 2886,
      "##asting": 2887,
      "another": 2888,
      "shared": 2889,
      "perm": 2890,
      "impact": 2891,
      "relation": 2892,
      "combinator": 2893,
      "separation": 2894,
      "validation": 2895,
      "coordinate": 2896,
      "mark": 2897,
      "theor": 2898,
      "Thus": 2899,
      "##ili": 2900,
      "acqu": 2901,
      "distances": 2902,
      "neur": 2903,
      "development": 2904,
      "relaxation": 2905,
      "Par": 2906,
      "##ton": 2907,
      "offer": 2908,
      "##eless": 2909,
      "##amb": 2910,
      "variation": 2911,
      "tract": 2912,
      "##edia": 2913,
      "tuning": 2914,
      "baseline": 2915,
      "expectation": 2916,
      "alpha": 2917,
      "down": 2918,
      "ref": 2919,
      "generating": 2920,
      "capable": 2921,
      "unified": 2922,
      "indicate": 2923,
      "transition": 2924,
      "##get": 2925,
      "##af": 2926,
      "intr": 2927,
      "see": 2928,
      "comparing": 2929,
      "independence": 2930,
      "restricted": 2931,
      "ell_1": 2932,
      "##ons": 2933,
      "##ceed": 2934,
      "applicable": 2935,
      "decre": 2936,
      "scalability": 2937,
      "reduces": 2938,
      "leading": 2939,
      "##exts": 2940,
      "involves": 2941,
      "threshold": 2942,
      "##iring": 2943,
      "##ucl": 2944,
      "alloc": 2945,
      "##ditionally": 2946,
      "combines": 2947,
      "simulations": 2948,
      "confir": 2949,
      "answer": 2950,
      "MNIST": 2951,
      "slow": 2952,
      "##pro": 2953,
      "##LM": 2954,
      "align": 2955,
      "implicit": 2956,
      "intu": 2957,
      "connections": 2958,
      "Recent": 2959,
      "##rowd": 2960,
      "incorporate": 2961,
      "geometric": 2962,
      "##olt": 2963,
      "methodology": 2964,
      "gradients": 2965,
      "##tivity": 2966,
      "partially": 2967,
      "cruc": 2968,
      "determine": 2969,
      "Analy": 2970,
      "varying": 2971,
      "##IF": 2972,
      "reach": 2973,
      "chain": 2974,
      "guaranteed": 2975,
      "extended": 2976,
      "outliers": 2977,
      "nor": 2978,
      "uniqu": 2979,
      "concepts": 2980,
      "exc": 2981,
      "spl": 2982,
      "##ditive": 2983,
      "##ficients": 2984,
      "validate": 2985,
      "RL": 2986,
      "Tw": 2987,
      "pix": 2988,
      "##yc": 2989,
      "inverse": 2990,
      "area": 2991,
      "sampled": 2992,
      "abstr": 2993,
      "##idean": 2994,
      "characteristics": 2995,
      "treat": 2996,
      "flexible": 2997,
      "##uclidean": 2998,
      "CNNs": 2999,
      "Vector": 3000,
      "bag": 3001,
      "##ement": 3002,
      "feas": 3003,
      "scores": 3004,
      "iterations": 3005,
      "becomes": 3006,
      "##oltz": 3007,
      "Sim": 3008,
      "heter": 3009,
      "##lass": 3010,
      "abs": 3011,
      "characterize": 3012,
      "etc": 3013,
      "diverse": 3014,
      "extracted": 3015,
      "hence": 3016,
      "might": 3017,
      "##alities": 3018,
      "inspired": 3019,
      "environments": 3020,
      "hyperparamet": 3021,
      "MDP": 3022,
      "care": 3023,
      "lif": 3024,
      "##eck": 3025,
      "org": 3026,
      "##ands": 3027,
      "subject": 3028,
      "effects": 3029,
      "introduces": 3030,
      "phen": 3031,
      "principal": 3032,
      "influence": 3033,
      "dig": 3034,
      "sensor": 3035,
      "##con": 3036,
      "stable": 3037,
      "closed": 3038,
      "index": 3039,
      "explain": 3040,
      "needed": 3041,
      "surrog": 3042,
      "monot": 3043,
      "proximal": 3044,
      "combinatorial": 3045,
      "Le": 3046,
      "cell": 3047,
      "##ittle": 3048,
      "##sively": 3049,
      "map": 3050,
      "attack": 3051,
      "comparisons": 3052,
      "Support": 3053,
      "crucial": 3054,
      "PAC": 3055,
      "##bs": 3056,
      "forward": 3057,
      "maps": 3058,
      "final": 3059,
      "minimal": 3060,
      "##versity": 3061,
      "extensions": 3062,
      "scenario": 3063,
      "coefficients": 3064,
      "aspects": 3065,
      "ratio": 3066,
      "Boltz": 3067,
      "Random": 3068,
      "##ring": 3069,
      "differential": 3070,
      "procedures": 3071,
      "established": 3072,
      "rewards": 3073,
      "constructed": 3074,
      "frequency": 3075,
      "protein": 3076,
      "Euclidean": 3077,
      "core": 3078,
      "always": 3079,
      "measured": 3080,
      "produces": 3081,
      "recogn": 3082,
      "identifying": 3083,
      "LSTM": 3084,
      "Min": 3085,
      "bal": 3086,
      "##zy": 3087,
      "though": 3088,
      "appear": 3089,
      "before": 3090,
      "##umul": 3091,
      "dise": 3092,
      "##antum": 3093,
      "##ellig": 3094,
      "accurately": 3095,
      "selecting": 3096,
      "operations": 3097,
      "connected": 3098,
      "edges": 3099,
      "anomaly": 3100,
      "dropout": 3101,
      "New": 3102,
      "wise": 3103,
      "##ortion": 3104,
      "##ict": 3105,
      "##lean": 3106,
      "##oses": 3107,
      "dem": 3108,
      "areas": 3109,
      "classify": 3110,
      "desired": 3111,
      "includes": 3112,
      "SVMs": 3113,
      "##anning": 3114,
      "remains": 3115,
      "counter": 3116,
      "##prising": 3117,
      "provably": 3118,
      "paradigm": 3119,
      "Boltzmann": 3120,
      "little": 3121,
      "mix": 3122,
      "##cer": 3123,
      "##Boost": 3124,
      "##RM": 3125,
      "##als": 3126,
      "reducing": 3127,
      "concern": 3128,
      "sugges": 3129,
      "edge": 3130,
      "substantially": 3131,
      "audi": 3132,
      "##ious": 3133,
      "coup": 3134,
      "relies": 3135,
      "linearly": 3136,
      "speak": 3137,
      "##ropagation": 3138,
      "NP": 3139,
      "SS": 3140,
      "having": 3141,
      "##by": 3142,
      "##}$": 3143,
      "worst": 3144,
      "maximizing": 3145,
      "increases": 3146,
      "augment": 3147,
      "heuristic": 3148,
      "##sim": 3149,
      "##uctive": 3150,
      "##time": 3151,
      "dependency": 3152,
      "increment": 3153,
      "benchmarks": 3154,
      "towards": 3155,
      "tractable": 3156,
      "$)": 3157,
      "$(": 3158,
      "get": 3159,
      "round": 3160,
      "##pus": 3161,
      "##lay": 3162,
      "seen": 3163,
      "leverage": 3164,
      "depth": 3165,
      "##atically": 3166,
      "##ega": 3167,
      "formulate": 3168,
      "contextual": 3169,
      "ideas": 3170,
      "activation": 3171,
      "Model": 3172,
      "extremely": 3173,
      "favor": 3174,
      "Lasso": 3175,
      "pi": 3176,
      "##oising": 3177,
      "##itive": 3178,
      "##cent": 3179,
      "##mega": 3180,
      "##vance": 3181,
      "##ords": 3182,
      "compact": 3183,
      "clos": 3184,
      "region": 3185,
      "##ade": 3186,
      "subg": 3187,
      "losses": 3188,
      "respectively": 3189,
      "members": 3190,
      "projections": 3191,
      "Analysis": 3192,
      "App": 3193,
      "Me": 3194,
      "Op": 3195,
      "fraction": 3196,
      "##eal": 3197,
      "##icro": 3198,
      "approximately": 3199,
      "randomly": 3200,
      "priors": 3201,
      "corrup": 3202,
      "decisions": 3203,
      "crowd": 3204,
      "sizes": 3205,
      "tag": 3206,
      "##aive": 3207,
      "##vity": 3208,
      "##ener": 3209,
      "##ised": 3210,
      "adj": 3211,
      "additive": 3212,
      "quantum": 3213,
      "intern": 3214,
      "multiplic": 3215,
      "encour": 3216,
      "ways": 3217,
      "belong": 3218,
      "channel": 3219,
      "translation": 3220,
      "confirm": 3221,
      "frac": 3222,
      "conj": 3223,
      "interval": 3224,
      "corpus": 3225,
      "scaling": 3226,
      "deriv": 3227,
      "univers": 3228,
      "needs": 3229,
      "##ceptron": 3230,
      "calib": 3231,
      "categories": 3232,
      "transformations": 3233,
      "experimentally": 3234,
      "theorem": 3235,
      "Ind": 3236,
      "Lap": 3237,
      "##atical": 3238,
      "##da": 3239,
      "##SP": 3240,
      "analog": 3241,
      "intract": 3242,
      "next": 3243,
      "##bert": 3244,
      "observe": 3245,
      "MAP": 3246,
      "delta": 3247,
      "examine": 3248,
      "Po": 3249,
      "bre": 3250,
      "bud": 3251,
      "##uish": 3252,
      "##AD": 3253,
      "##uth": 3254,
      "##tinguish": 3255,
      "##irc": 3256,
      "repe": 3257,
      "maximize": 3258,
      "##egative": 3259,
      "collected": 3260,
      "extends": 3261,
      "analyzing": 3262,
      "return": 3263,
      "potentially": 3264,
      "preserving": 3265,
      "Empirical": 3266,
      "flow": 3267,
      "inequ": 3268,
      "##isms": 3269,
      "##tinc": 3270,
      "relatively": 3271,
      "##ounts": 3272,
      "exploiting": 3273,
      "config": 3274,
      "preferences": 3275,
      "Und": 3276,
      "done": 3277,
      "##ded": 3278,
      "regularizer": 3279,
      "typical": 3280,
      "surve": 3281,
      "##lusion": 3282,
      "Process": 3283,
      "Dec": 3284,
      "NN": 3285,
      "vol": 3286,
      "##ird": 3287,
      "distinc": 3288,
      "unit": 3289,
      "built": 3290,
      "exactly": 3291,
      "employed": 3292,
      "representing": 3293,
      "argue": 3294,
      "organ": 3295,
      "Pre": 3296,
      "tail": 3297,
      "##la": 3298,
      "##ification": 3299,
      "##yond": 3300,
      "##cing": 3301,
      "star": 3302,
      "##utation": 3303,
      "##forward": 3304,
      "##ilbert": 3305,
      "modelling": 3306,
      "shif": 3307,
      "parts": 3308,
      "##ograph": 3309,
      "##otyp": 3310,
      "##omplete": 3311,
      "alternating": 3312,
      "involving": 3313,
      "occurr": 3314,
      "entire": 3315,
      "benefits": 3316,
      "audio": 3317,
      "Data": 3318,
      "rap": 3319,
      "##ilarities": 3320,
      "poor": 3321,
      "optimality": 3322,
      "capac": 3323,
      "independently": 3324,
      "nearly": 3325,
      "tracking": 3326,
      "##ambda": 3327,
      "Gib": 3328,
      "tend": 3329,
      "},": 3330,
      "##less": 3331,
      "##reh": 3332,
      "##ild": 3333,
      "contributions": 3334,
      "activity": 3335,
      "Gibbs": 3336,
      "lack": 3337,
      "right": 3338,
      "##acle": 3339,
      "complement": 3340,
      "enable": 3341,
      "Per": 3342,
      "##ik": 3343,
      "##alk": 3344,
      "learners": 3345,
      "##thers": 3346,
      "above": 3347,
      "simpl": 3348,
      "described": 3349,
      "predictor": 3350,
      "requirements": 3351,
      "occur": 3352,
      "benefit": 3353,
      "medical": 3354,
      "($": 3355,
      "Hilbert": 3356,
      "}^": 3357,
      "##oding": 3358,
      "cover": 3359,
      "cancer": 3360,
      "emerg": 3361,
      "##atics": 3362,
      "automated": 3363,
      "filters": 3364,
      "relevance": 3365,
      "denoising": 3366,
      "Therefore": 3367,
      "pooling": 3368,
      "Under": 3369,
      "Numer": 3370,
      "others": 3371,
      "##uz": 3372,
      "##comes": 3373,
      "distinguish": 3374,
      "##aps": 3375,
      "##ectives": 3376,
      "squared": 3377,
      "multim": 3378,
      "##assification": 3379,
      "Extensive": 3380,
      "mathematical": 3381,
      "configur": 3382,
      "Fe": 3383,
      "RNNs": 3384,
      "Spar": 3385,
      "cut": 3386,
      "row": 3387,
      "##negative": 3388,
      "##UC": 3389,
      "modern": 3390,
      "intellig": 3391,
      "##ancy": 3392,
      "remain": 3393,
      "elect": 3394,
      "whole": 3395,
      "essential": 3396,
      "Despite": 3397,
      "budget": 3398,
      "rapid": 3399,
      "lambda": 3400,
      "sw": 3401,
      "til": 3402,
      "complet": 3403,
      "overcome": 3404,
      "##urrently": 3405,
      "addresses": 3406,
      "views": 3407,
      "Stochastic": 3408,
      "Ada": 3409,
      "intrins": 3410,
      "unique": 3411,
      "Im": 3412,
      "##SV": 3413,
      "exists": 3414,
      "latter": 3415,
      "directed": 3416,
      "predictors": 3417,
      "square": 3418,
      "meaningful": 3419,
      "intractable": 3420,
      "capacity": 3421,
      "Reg": 3422,
      "Since": 3423,
      "fal": 3424,
      "hold": 3425,
      "##fitting": 3426,
      "##assing": 3427,
      "modeled": 3428,
      "share": 3429,
      "##vial": 3430,
      "introducing": 3431,
      "diversity": 3432,
      "bandits": 3433,
      "correspond": 3434,
      "difficulty": 3435,
      "Clust": 3436,
      "sentence": 3437,
      "insights": 3438,
      "Previous": 3439,
      "BP": 3440,
      "CIF": 3441,
      "##rit": 3442,
      "##LP": 3443,
      "extrac": 3444,
      "differences": 3445,
      "traject": 3446,
      "exploits": 3447,
      "advances": 3448,
      "hashing": 3449,
      "ADMM": 3450,
      "##chronous": 3451,
      "DA": 3452,
      "Kernel": 3453,
      "pe": 3454,
      "vo": 3455,
      "##ira": 3456,
      "##IC": 3457,
      "##ull": 3458,
      "compreh": 3459,
      "usage": 3460,
      "##ilit": 3461,
      "generalizes": 3462,
      "considering": 3463,
      "represents": 3464,
      "resources": 3465,
      "informative": 3466,
      "tackle": 3467,
      "Omega": 3468,
      "mus": 3469,
      "##ams": 3470,
      "##OM": 3471,
      "##ored": 3472,
      "##ampling": 3473,
      "differenti": 3474,
      "robot": 3475,
      "limitations": 3476,
      "concent": 3477,
      "focused": 3478,
      "surprising": 3479,
      "incorporating": 3480,
      "taking": 3481,
      "tradeoff": 3482,
      "drawn": 3483,
      "science": 3484,
      "allocation": 3485,
      "Bo": 3486,
      "Mat": 3487,
      "Tr": 3488,
      "just": 3489,
      "##app": 3490,
      "##omen": 3491,
      "##ope": 3492,
      "redund": 3493,
      "robo": 3494,
      "mixtures": 3495,
      "diagnos": 3496,
      "possibly": 3497,
      "surrogate": 3498,
      "ign": 3499,
      "ow": 3500,
      "pay": 3501,
      "pass": 3502,
      "##bo": 3503,
      "##eh": 3504,
      "cop": 3505,
      "beyond": 3506,
      "acous": 3507,
      "requiring": 3508,
      "subsets": 3509,
      "researchers": 3510,
      "principled": 3511,
      "100": 3512,
      "named": 3513,
      "sentences": 3514,
      "streaming": 3515,
      "conducted": 3516,
      "diffusion": 3517,
      "universal": 3518,
      "around": 3519,
      "fl": 3520,
      "exec": 3521,
      "composition": 3522,
      "optimized": 3523,
      "specified": 3524,
      "singular": 3525,
      "geometry": 3526,
      "motivated": 3527,
      "teach": 3528,
      "##uzzy": 3529,
      "##irable": 3530,
      "Aut": 3531,
      "PS": 3532,
      "SA": 3533,
      "circ": 3534,
      "##ience": 3535,
      "##_1": 3536,
      "##sitivity": 3537,
      "##thog": 3538,
      "reprod": 3539,
      "measurement": 3540,
      "specifically": 3541,
      "encoder": 3542,
      "hypothes": 3543,
      "multic": 3544,
      "phenomen": 3545,
      "hom": 3546,
      "consequ": 3547,
      "enough": 3548,
      "itself": 3549,
      "characterization": 3550,
      "describes": 3551,
      "behaviour": 3552,
      "captures": 3553,
      "personal": 3554,
      "look": 3555,
      "mutual": 3556,
      "har": 3557,
      "micro": 3558,
      "##bra": 3559,
      "##ash": 3560,
      "prof": 3561,
      "##radi": 3562,
      "applies": 3563,
      "performances": 3564,
      "##sour": 3565,
      "mob": 3566,
      "locally": 3567,
      "box": 3568,
      "speedup": 3569,
      "correlations": 3570,
      "correlated": 3571,
      "normalized": 3572,
      "facilit": 3573,
      "radi": 3574,
      "description": 3575,
      "ratings": 3576,
      "storage": 3577,
      "careful": 3578,
      "Four": 3579,
      "##medi": 3580,
      "##orts": 3581,
      "##ults": 3582,
      "modified": 3583,
      "oracle": 3584,
      "noncon": 3585,
      "similarities": 3586,
      "biological": 3587,
      "GPU": 3588,
      "anomal": 3589,
      "MCMC": 3590,
      "Maxim": 3591,
      "summar": 3592,
      "heterogeneous": 3593,
      "piec": 3594,
      "}.": 3595,
      "##oin": 3596,
      "##BM": 3597,
      "##SE": 3598,
      "##ital": 3599,
      "compression": 3600,
      "orders": 3601,
      "adm": 3602,
      "effort": 3603,
      "attain": 3604,
      "truth": 3605,
      "applicability": 3606,
      "discre": 3607,
      "population": 3608,
      "choose": 3609,
      "remo": 3610,
      "serv": 3611,
      "Co": 3612,
      "CS": 3613,
      "last": 3614,
      "mixed": 3615,
      "massive": 3616,
      "##ffic": 3617,
      "##gebra": 3618,
      "##rained": 3619,
      "computations": 3620,
      "separate": 3621,
      "asymptotically": 3622,
      "aggregation": 3623,
      "constructing": 3624,
      "enhance": 3625,
      "candidate": 3626,
      "mixing": 3627,
      "false": 3628,
      "##ritten": 3629,
      "Ar": 3630,
      "ri": 3631,
      "##ader": 3632,
      "##ered": 3633,
      "They": 3634,
      "effic": 3635,
      "contains": 3636,
      "communities": 3637,
      "offers": 3638,
      "dense": 3639,
      "speaker": 3640,
      "tilde": 3641,
      "intrinsic": 3642,
      "CIFAR": 3643,
      "acoustic": 3644,
      "bit": 3645,
      "sec": 3646,
      "##isting": 3647,
      "##unately": 3648,
      "##eman": 3649,
      "programs": 3650,
      "resolution": 3651,
      "message": 3652,
      "clin": 3653,
      "##ustom": 3654,
      "##usti": 3655,
      "predicted": 3656,
      "formulated": 3657,
      "alternatives": 3658,
      "assumed": 3659,
      "taken": 3660,
      "Additionally": 3661,
      "mechanisms": 3662,
      "existence": 3663,
      "exhibit": 3664,
      "received": 3665,
      "situations": 3666,
      "life": 3667,
      "suggests": 3668,
      "incremental": 3669,
      "Hes": 3670,
      "})": 3671,
      "##rum": 3672,
      "##ories": 3673,
      "##alth": 3674,
      "##isc": 3675,
      "##timent": 3676,
      "regime": 3677,
      "##adem": 3678,
      "considers": 3679,
      "likely": 3680,
      "versions": 3681,
      "initialization": 3682,
      "Machines": 3683,
      "attempt": 3684,
      "forecasting": 3685,
      "efficacy": 3686,
      "DC": 3687,
      "custom": 3688,
      "##ention": 3689,
      "##tices": 3690,
      "supervis": 3691,
      "##abell": 3692,
      "##ucts": 3693,
      "Inst": 3694,
      "overfitting": 3695,
      "realistic": 3696,
      "objectives": 3697,
      "##ibri": 3698,
      "recommender": 3699,
      "fewer": 3700,
      "exponentially": 3701,
      "links": 3702,
      "neighborhood": 3703,
      "Newton": 3704,
      "Numerical": 3705,
      "All": 3706,
      "bot": 3707,
      "opp": 3708,
      "tens": 3709,
      "##au": 3710,
      "##aw": 3711,
      "##eed": 3712,
      "##tor": 3713,
      "##izers": 3714,
      "detecting": 3715,
      "demonstrates": 3716,
      "developing": 3717,
      "scienti": 3718,
      "physical": 3719,
      "sharing": 3720,
      "membership": 3721,
      "Sparse": 3722,
      "Hessian": 3723,
      "3D": 3724,
      "dr": 3725,
      "fitting": 3726,
      "##bles": 3727,
      "##iod": 3728,
      "##itch": 3729,
      "algebra": 3730,
      "recur": 3731,
      "scoring": 3732,
      "symmetric": 3733,
      "##ote": 3734,
      "produced": 3735,
      "interpretable": 3736,
      "player": 3737,
      "disease": 3738,
      "Laplac": 3739,
      "nonconvex": 3740,
      "Each": 3741,
      "saf": 3742,
      "##NA": 3743,
      "##jo": 3744,
      "##pped": 3745,
      "##ides": 3746,
      "ord": 3747,
      "outcomes": 3748,
      "representative": 3749,
      "evaluations": 3750,
      "SVD": 3751,
      "##ologies": 3752,
      "priori": 3753,
      "codes": 3754,
      "encoding": 3755,
      "suffer": 3756,
      "flexibility": 3757,
      "demand": 3758,
      "own": 3759,
      "var": 3760,
      "too": 3761,
      "proven": 3762,
      "sty": 3763,
      "asyn": 3764,
      "##ilibri": 3765,
      "enjo": 3766,
      "strength": 3767,
      "##ips": 3768,
      "verify": 3769,
      "beta": 3770,
      "traffic": 3771,
      ")$,": 3772,
      "##fortunately": 3773,
      "technical": 3774,
      "Results": 3775,
      "volum": 3776,
      "Image": 3777,
      "clear": 3778,
      "cumul": 3779,
      "}\\": 3780,
      "##RI": 3781,
      "##oriz": 3782,
      "##ission": 3783,
      "orthog": 3784,
      "##lications": 3785,
      "##seud": 3786,
      "progress": 3787,
      "engineering": 3788,
      "seek": 3789,
      "proved": 3790,
      "##action": 3791,
      "##gorous": 3792,
      "##ormal": 3793,
      "equivalence": 3794,
      "monit": 3795,
      "substantial": 3796,
      "multiclass": 3797,
      "VC": 3798,
      "br": 3799,
      "justi": 3800,
      "nuc": 3801,
      "##AM": 3802,
      "thous": 3803,
      "##ening": 3804,
      "Inter": 3805,
      "period": 3806,
      "##raining": 3807,
      "optimum": 3808,
      "variations": 3809,
      "nonnegative": 3810,
      "plat": 3811,
      "Existing": 3812,
      "consisting": 3813,
      "recovering": 3814,
      "definition": 3815,
      "spectrum": 3816,
      "involve": 3817,
      "quantit": 3818,
      "satisfy": 3819,
      "reliable": 3820,
      "columns": 3821,
      "Motiv": 3822,
      "feasible": 3823,
      "AL": 3824,
      "If": 3825,
      "Sever": 3826,
      "light": 3827,
      "##crip": 3828,
      "##oders": 3829,
      "forms": 3830,
      "stra": 3831,
      "static": 3832,
      "showed": 3833,
      "qual": 3834,
      "quick": 3835,
      "desirable": 3836,
      "equal": 3837,
      "embedded": 3838,
      "Convolutional": 3839,
      "smoothness": 3840,
      "health": 3841,
      "backp": 3842,
      "databases": 3843,
      "containing": 3844,
      "baselines": 3845,
      "hypotheses": 3846,
      "Several": 3847,
      "currently": 3848,
      "horiz": 3849,
      "##TL": 3850,
      "pred": 3851,
      "subj": 3852,
      "classic": 3853,
      "finds": 3854,
      "deploy": 3855,
      "simpler": 3856,
      "dynamical": 3857,
      "viewed": 3858,
      "assuming": 3859,
      "primal": 3860,
      "moment": 3861,
      "internal": 3862,
      "##radient": 3863,
      "rigorous": 3864,
      "Both": 3865,
      "Met": 3866,
      "TD": 3867,
      "Vari": 3868,
      "averaging": 3869,
      "pseud": 3870,
      "walk": 3871,
      "inherent": 3872,
      "##ele": 3873,
      "##odal": 3874,
      "##rad": 3875,
      "reference": 3876,
      "logic": 3877,
      "sensitivity": 3878,
      "Str": 3879,
      "separable": 3880,
      "hierarchy": 3881,
      "2012": 3882,
      "category": 3883,
      "Unfortunately": 3884,
      "responses": 3885,
      "loop": 3886,
      "mathbb": 3887,
      "repeated": 3888,
      "Fourier": 3889,
      "supervision": 3890,
      "Bl": 3891,
      "list": 3892,
      "##ient": 3893,
      "##tors": 3894,
      "##eness": 3895,
      "identified": 3896,
      "black": 3897,
      "runtime": 3898,
      "sensors": 3899,
      "count": 3900,
      "##ealing": 3901,
      "distinct": 3902,
      "Laplacian": 3903,
      "Graph": 3904,
      "].": 3905,
      "sound": 3906,
      "##mb": 3907,
      "##rees": 3908,
      "##olding": 3909,
      "imbal": 3910,
      "motion": 3911,
      "##fined": 3912,
      "thereby": 3913,
      "analyzed": 3914,
      "choices": 3915,
      "amounts": 3916,
      "players": 3917,
      "encode": 3918,
      "elimin": 3919,
      "early": 3920,
      "autoencoder": 3921,
      "Instead": 3922,
      "DB": 3923,
      "L1": 3924,
      "Non": 3925,
      "now": 3926,
      "##gments": 3927,
      "##elim": 3928,
      "start": 3929,
      "##ried": 3930,
      "meta": 3931,
      "outcome": 3932,
      "##lier": 3933,
      "operators": 3934,
      "sentiment": 3935,
      "suited": 3936,
      "raw": 3937,
      "shape": 3938,
      "completely": 3939,
      "bott": 3940,
      "asynchronous": 3941,
      "Cor": 3942,
      "LS": 3943,
      "cyc": 3944,
      "element": 3945,
      "fine": 3946,
      "pack": 3947,
      "##cl": 3948,
      "##ER": 3949,
      "stack": 3950,
      "devi": 3951,
      "recall": 3952,
      "lever": 3953,
      "solvers": 3954,
      "induced": 3955,
      "##herence": 3956,
      "adapted": 3957,
      "equilibri": 3958,
      "choosing": 3959,
      "runs": 3960,
      "2015": 3961,
      "increasingly": 3962,
      "##sequently": 3963,
      "annotation": 3964,
      "maintaining": 3965,
      "patients": 3966,
      "norms": 3967,
      "comprehensive": 3968,
      "##mediate": 3969,
      "Ac": 3970,
      "aware": 3971,
      "naive": 3972,
      "##uro": 3973,
      "##io": 3974,
      "##MA": 3975,
      "##atory": 3976,
      "strict": 3977,
      "contexts": 3978,
      "approximating": 3979,
      "obtaining": 3980,
      "adaptively": 3981,
      ")$.": 3982,
      "uniformly": 3983,
      "primary": 3984,
      "insight": 3985,
      "mathbf": 3986,
      "neurons": 3987,
      "mobile": 3988,
      "CRF": 3989,
      "Fact": 3990,
      "##ground": 3991,
      "##itter": 3992,
      "##ane": 3993,
      "compressed": 3994,
      "resid": 3995,
      "analyses": 3996,
      "news": 3997,
      "despite": 3998,
      "manage": 3999,
      "explan": 4000,
      "investigated": 4001,
      "involved": 4002,
      "determined": 4003,
      "entities": 4004,
      "reasoning": 4005,
      "trivial": 4006,
      "software": 4007,
      "devices": 4008,
      "publicly": 4009,
      "AdaBoost": 4010,
      "cumulative": 4011,
      "horizon": 4012,
      "##eliminary": 4013,
      "CD": 4014,
      "Gener": 4015,
      "gains": 4016,
      "kind": 4017,
      "lasso": 4018,
      "##ositions": 4019,
      "##pl": 4020,
      "##vable": 4021,
      "##ined": 4022,
      "##acies": 4023,
      "forests": 4024,
      "##epsilon": 4025,
      "patch": 4026,
      "gamma": 4027,
      "correctly": 4028,
      "greatly": 4029,
      "199": 4030,
      "authors": 4031,
      "hyperparameters": 4032,
      "counterpar": 4033,
      "corrupted": 4034,
      "crowdsour": 4035,
      "varepsilon": 4036,
      "Motivated": 4037,
      "qualit": 4038,
      "Dif": 4039,
      "cite": 4040,
      "fuzzy": 4041,
      "vir": 4042,
      "##xili": 4043,
      "##AS": 4044,
      "##vent": 4045,
      "inner": 4046,
      "##asi": 4047,
      "read": 4048,
      "##ilies": 4049,
      "##times": 4050,
      "manip": 4051,
      "##finity": 4052,
      "directions": 4053,
      "Cont": 4054,
      "matches": 4055,
      "discussed": 4056,
      "semantics": 4057,
      "findings": 4058,
      "exploitation": 4059,
      "coefficient": 4060,
      "Optim": 4061,
      "Clustering": 4062,
      "diagnosis": 4063,
      "clinical": 4064,
      "##xiliary": 4065,
      "Dist": 4066,
      "hal": 4067,
      "##face": 4068,
      "##roid": 4069,
      "##formatics": 4070,
      "##ewise": 4071,
      "arise": 4072,
      "statistically": 4073,
      "##ectivity": 4074,
      "behaviors": 4075,
      "recommendations": 4076,
      "Algorith": 4077,
      "dealing": 4078,
      "reasonable": 4079,
      "reported": 4080,
      "auxiliary": 4081,
      "essentially": 4082,
      "million": 4083,
      "pixel": 4084,
      "))": 4085,
      "Linear": 4086,
      "##sc": 4087,
      "##ire": 4088,
      "##orting": 4089,
      "perceptron": 4090,
      "unse": 4091,
      "incomplete": 4092,
      "decoding": 4093,
      "move": 4094,
      "##ighted": 4095,
      "costly": 4096,
      "guid": 4097,
      "implementations": 4098,
      "conclud": 4099,
      "consistently": 4100,
      "utilize": 4101,
      "individuals": 4102,
      "background": 4103,
      "majority": 4104,
      "shift": 4105,
      "Feature": 4106,
      "DNNs": 4107,
      "MD": 4108,
      "mild": 4109,
      "voc": 4110,
      "##zation": 4111,
      "##task": 4112,
      "##LU": 4113,
      "##eth": 4114,
      "genes": 4115,
      "scre": 4116,
      "numbers": 4117,
      "capability": 4118,
      "iteratively": 4119,
      "##chitz": 4120,
      "characterized": 4121,
      "2014": 4122,
      "families": 4123,
      "usefulness": 4124,
      "employs": 4125,
      "constit": 4126,
      "market": 4127,
      "nuclear": 4128,
      "12": 4129,
      "Lat": 4130,
      "Lips": 4131,
      "mer": 4132,
      "pose": 4133,
      "vers": 4134,
      "##tt": 4135,
      "##asc": 4136,
      "##rating": 4137,
      "expressed": 4138,
      "overla": 4139,
      "vertices": 4140,
      "location": 4141,
      "planning": 4142,
      "calibration": 4143,
      "break": 4144,
      "backpropagation": 4145,
      "Rep": 4146,
      "wind": 4147,
      "##rel": 4148,
      "##ho": 4149,
      "##hion": 4150,
      "##arm": 4151,
      "##isson": 4152,
      "conject": 4153,
      "##oming": 4154,
      "##omic": 4155,
      "implies": 4156,
      "##ocol": 4157,
      "##allow": 4158,
      "approximated": 4159,
      "preference": 4160,
      "agnos": 4161,
      "formulations": 4162,
      "fashion": 4163,
      "Compared": 4164,
      "partitioning": 4165,
      "DPP": 4166,
      "closely": 4167,
      "survey": 4168,
      "music": 4169,
      "Lipschitz": 4170,
      "MM": 4171,
      "Qu": 4172,
      "af": 4173,
      "ec": 4174,
      "grid": 4175,
      "}}": 4176,
      "##bally": 4177,
      "why": 4178,
      "generates": 4179,
      "quite": 4180,
      "systematic": 4181,
      "##idefinite": 4182,
      "combinations": 4183,
      "handw": 4184,
      "offline": 4185,
      "protocol": 4186,
      "UCB": 4187,
      "augmented": 4188,
      "Poisson": 4189,
      "quickly": 4190,
      "AI": 4191,
      "passing": 4192,
      "##olean": 4193,
      "##PS": 4194,
      "##fect": 4195,
      "##HS": 4196,
      "##onic": 4197,
      "##idth": 4198,
      "dissim": 4199,
      "Information": 4200,
      "##nian": 4201,
      "##abilities": 4202,
      "comes": 4203,
      "convexity": 4204,
      "##suit": 4205,
      "attrac": 4206,
      "keep": 4207,
      "miscl": 4208,
      "scene": 4209,
      "corresponds": 4210,
      "reconstruct": 4211,
      "assignment": 4212,
      "create": 4213,
      "resource": 4214,
      "millions": 4215,
      "extracting": 4216,
      "##oinformatics": 4217,
      "tensors": 4218,
      "unseen": 4219,
      "After": 4220,
      "RF": 4221,
      "Sub": 4222,
      "##rarily": 4223,
      "##fact": 4224,
      "##eta": 4225,
      "##urity": 4226,
      "##uctions": 4227,
      "adding": 4228,
      "##unction": 4229,
      "unlike": 4230,
      "##ensus": 4231,
      "lib": 4232,
      "designing": 4233,
      "semidefinite": 4234,
      "partitions": 4235,
      "numerous": 4236,
      "adversary": 4237,
      "consum": 4238,
      "carried": 4239,
      "Two": 4240,
      "Trans": 4241,
      "orthogonal": 4242,
      "thousands": 4243,
      "Ri": 4244,
      "gr": 4245,
      "##yst": 4246,
      "##onical": 4247,
      "##ult": 4248,
      "##osite": 4249,
      "Int": 4250,
      "propor": 4251,
      "extra": 4252,
      "inducing": 4253,
      "workers": 4254,
      "evaluating": 4255,
      "transd": 4256,
      "allowed": 4257,
      "domin": 4258,
      "boost": 4259,
      "globally": 4260,
      "ensembles": 4261,
      "manifolds": 4262,
      "arbitrarily": 4263,
      "^{-": 4264,
      "iii": 4265,
      "##biased": 4266,
      "attempts": 4267,
      "referred": 4268,
      "fair": 4269,
      "payoff": 4270,
      "ImageNet": 4271,
      "AUC": 4272,
      "Go": 4273,
      "RK": 4274,
      "fusion": 4275,
      "##rated": 4276,
      "##oper": 4277,
      "##way": 4278,
      "##inge": 4279,
      "##entral": 4280,
      "stock": 4281,
      "complic": 4282,
      "modification": 4283,
      "##olation": 4284,
      "##ters": 4285,
      "##struct": 4286,
      "##alue": 4287,
      "boundary": 4288,
      "accuracies": 4289,
      "corpor": 4290,
      "considerable": 4291,
      "##ishing": 4292,
      "handling": 4293,
      "requirement": 4294,
      "attribute": 4295,
      "streams": 4296,
      "detailed": 4297,
      "piecewise": 4298,
      "##abelled": 4299,
      "-$": 4300,
      "Disc": 4301,
      "Tree": 4302,
      "media": 4303,
      "##head": 4304,
      "##ying": 4305,
      "##IM": 4306,
      "##..": 4307,
      "##esides": 4308,
      "cog": 4309,
      "classifying": 4310,
      "##ends": 4311,
      "highlight": 4312,
      "demonstra": 4313,
      "##otstra": 4314,
      "products": 4315,
      "sched": 4316,
      "dynamically": 4317,
      "observable": 4318,
      "##lished": 4319,
      "incorporates": 4320,
      "helps": 4321,
      "answers": 4322,
      "argum": 4323,
      "heuristics": 4324,
      "patient": 4325,
      "refl": 4326,
      "intuitive": 4327,
      "adjust": 4328,
      "Factor": 4329,
      "\",": 4330,
      ")}": 4331,
      "CT": 4332,
      "ax": 4333,
      "##we": 4334,
      "forest": 4335,
      "alread": 4336,
      "##verti": 4337,
      "ask": 4338,
      "arises": 4339,
      "neuro": 4340,
      "projected": 4341,
      "interpretability": 4342,
      "precise": 4343,
      "reveals": 4344,
      "growing": 4345,
      "affect": 4346,
      "half": 4347,
      "overlapping": 4348,
      "corpora": 4349,
      "already": 4350,
      "ME": 4351,
      "\\\"": 4352,
      "##CC": 4353,
      "##CD": 4354,
      "##onent": 4355,
      "##ensively": 4356,
      "exch": 4357,
      "##ireless": 4358,
      "arri": 4359,
      "unbiased": 4360,
      "computes": 4361,
      "compares": 4362,
      "depending": 4363,
      "autonom": 4364,
      "topology": 4365,
      "addressed": 4366,
      "concave": 4367,
      "2010": 4368,
      "interpreted": 4369,
      "advance": 4370,
      "entity": 4371,
      "integrated": 4372,
      "Mean": 4373,
      "multimodal": 4374,
      "configuration": 4375,
      "reproducing": 4376,
      "RKHS": 4377,
      "CF": 4378,
      "Fis": 4379,
      "MF": 4380,
      "dram": 4381,
      "##LE": 4382,
      "##tered": 4383,
      "##nitive": 4384,
      "enab": 4385,
      "trace": 4386,
      "sequentially": 4387,
      "divid": 4388,
      "increased": 4389,
      "eps": 4390,
      "focuses": 4391,
      "discovering": 4392,
      "weighting": 4393,
      "neighbors": 4394,
      "changing": 4395,
      "provable": 4396,
      "perturbation": 4397,
      "perturbations": 4398,
      "favorably": 4399,
      "multiplicative": 4400,
      "ball": 4401,
      "##rink": 4402,
      "##BP": 4403,
      "##ulations": 4404,
      "##sities": 4405,
      "##ometric": 4406,
      "##ectral": 4407,
      "symb": 4408,
      "##sist": 4409,
      "sublinear": 4410,
      "left": 4411,
      "##optim": 4412,
      "##ialog": 4413,
      "particip": 4414,
      "mainly": 4415,
      "bioinformatics": 4416,
      "plays": 4417,
      "aspect": 4418,
      "messages": 4419,
      "pseudo": 4420,
      "Latent": 4421,
      "demonstrating": 4422,
      "From": 4423,
      "Hence": 4424,
      "net": 4425,
      "nets": 4426,
      "rid": 4427,
      "slight": 4428,
      "##adi": 4429,
      "##CG": 4430,
      "##ody": 4431,
      "extern": 4432,
      "clou": 4433,
      "##irr": 4434,
      "price": 4435,
      "expressive": 4436,
      "##ople": 4437,
      "frame": 4438,
      "decoder": 4439,
      "minimizes": 4440,
      "connectivity": 4441,
      "ensure": 4442,
      "easier": 4443,
      "dictionaries": 4444,
      "Multip": 4445,
      "situation": 4446,
      "##ceeds": 4447,
      "alignment": 4448,
      "coupled": 4449,
      "switch": 4450,
      "recursive": 4451,
      "monitoring": 4452,
      "conclude": 4453,
      "ES": 4454,
      "##oll": 4455,
      "##vie": 4456,
      "ranging": 4457,
      "students": 4458,
      "inferring": 4459,
      "sometimes": 4460,
      "##ilarity": 4461,
      "equations": 4462,
      "follows": 4463,
      "frequently": 4464,
      "greater": 4465,
      "consensus": 4466,
      "moments": 4467,
      "intervals": 4468,
      "inequality": 4469,
      "($\\": 4470,
      "scientific": 4471,
      "15": 4472,
      "MP": 4473,
      "SD": 4474,
      "hinge": 4475,
      "ling": 4476,
      "rou": 4477,
      "##mission": 4478,
      "##LS": 4479,
      "third": 4480,
      "##ists": 4481,
      "Through": 4482,
      "##igu": 4483,
      "genetic": 4484,
      "##aged": 4485,
      "solves": 4486,
      "differentially": 4487,
      "simplic": 4488,
      "behind": 4489,
      "Recurrent": 4490,
      "bootstra": 4491,
      "interested": 4492,
      "followed": 4493,
      "normalization": 4494,
      "blocks": 4495,
      "accelerated": 4496,
      "##process": 4497,
      "treatment": 4498,
      "Decision": 4499,
      "virt": 4500,
      "autonomous": 4501,
      "Fisher": 4502,
      "Acc": 4503,
      "Breg": 4504,
      "SN": 4505,
      "holds": 4506,
      "wireless": 4507,
      "##AN": 4508,
      "##isely": 4509,
      "##etch": 4510,
      "record": 4511,
      "ordering": 4512,
      "##ancial": 4513,
      "added": 4514,
      "experience": 4515,
      "illustrated": 4516,
      "categorization": 4517,
      "superiority": 4518,
      "videos": 4519,
      "drawback": 4520,
      "grows": 4521,
      "abstract": 4522,
      "differentiable": 4523,
      "Matrix": 4524,
      "cognitive": 4525,
      "Bregman": 4526,
      "Some": 4527,
      "],": 4528,
      "dialog": 4529,
      "five": 4530,
      "tex": 4531,
      "##_i": 4532,
      "##levi": 4533,
      "allevi": 4534,
      "preliminary": 4535,
      "setup": 4536,
      "replac": 4537,
      "whereas": 4538,
      "simply": 4539,
      "student": 4540,
      "parameterized": 4541,
      "builds": 4542,
      "association": 4543,
      "explored": 4544,
      "capturing": 4545,
      "histor": 4546,
      "actual": 4547,
      "##emannian": 4548,
      "##entioned": 4549,
      "style": 4550,
      "quantitative": 4551,
      "agnostic": 4552,
      "Riemannian": 4553,
      "))$": 4554,
      ",\\": 4555,
      ":/": 4556,
      "But": 4557,
      "DR": 4558,
      "Imp": 4559,
      "LP": 4560,
      "Tra": 4561,
      "cause": 4562,
      "htt": 4563,
      "lot": 4564,
      "mal": 4565,
      "van": 4566,
      "##menting": 4567,
      "##orph": 4568,
      "##izable": 4569,
      "##ectors": 4570,
      "##ellent": 4571,
      "parametr": 4572,
      "deriving": 4573,
      "limits": 4574,
      "operation": 4575,
      "hardware": 4576,
      "employing": 4577,
      "load": 4578,
      "delay": 4579,
      "expressions": 4580,
      "history": 4581,
      "prototyp": 4582,
      "evolutionary": 4583,
      "autoencoders": 4584,
      "subgraph": 4585,
      "window": 4586,
      "textit": 4587,
      "://": 4588,
      "##sy": 4589,
      "##DS": 4590,
      "##OS": 4591,
      "##tif": 4592,
      "##ination": 4593,
      "although": 4594,
      "remark": 4595,
      "##acher": 4596,
      "##ulties": 4597,
      "suboptim": 4598,
      "leveraging": 4599,
      "##vities": 4600,
      "financial": 4601,
      "capabilities": 4602,
      "identifi": 4603,
      "SVR": 4604,
      "##pportun": 4605,
      "definite": 4606,
      "Online": 4607,
      "humans": 4608,
      "difficulties": 4609,
      "determining": 4610,
      "Classification": 4611,
      "paths": 4612,
      "curve": 4613,
      "curves": 4614,
      "Models": 4615,
      "RBM": 4616,
      "gained": 4617,
      "Predic": 4618,
      "trajectories": 4619,
      "people": 4620,
      "surprisingly": 4621,
      "leverages": 4622,
      "residual": 4623,
      "external": 4624,
      "\".": 4625,
      "000": 4626,
      "Es": 4627,
      "Or": 4628,
      "casc": 4629,
      "##ues": 4630,
      "##ged": 4631,
      "##ike": 4632,
      "##TM": 4633,
      "##arge": 4634,
      "onto": 4635,
      "usual": 4636,
      "shrink": 4637,
      "implications": 4638,
      "symm": 4639,
      "come": 4640,
      "##ricted": 4641,
      "##ipel": 4642,
      "encoun": 4643,
      "densities": 4644,
      "sufficiently": 4645,
      "tuned": 4646,
      "histog": 4647,
      "outlier": 4648,
      "controlled": 4649,
      "channels": 4650,
      "supports": 4651,
      "monotone": 4652,
      "rapidly": 4653,
      "carefully": 4654,
      "anomalies": 4655,
      "crowdsourcing": 4656,
      "Com": 4657,
      "ELM": 4658,
      "ICA": 4659,
      "Log": 4660,
      "MRF": 4661,
      "Sc": 4662,
      "hu": 4663,
      "opportun": 4664,
      "pipel": 4665,
      "sal": 4666,
      "##ES": 4667,
      "learnable": 4668,
      "##abular": 4669,
      "shallow": 4670,
      "analytical": 4671,
      "quasi": 4672,
      "indeed": 4673,
      "##ipar": 4674,
      "##liers": 4675,
      "limitation": 4676,
      "popularity": 4677,
      "origin": 4678,
      "center": 4679,
      "feedforward": 4680,
      "satisfies": 4681,
      "emphas": 4682,
      "marginals": 4683,
      "invariance": 4684,
      "Mah": 4685,
      "CPU": 4686,
      "excellent": 4687,
      "##ehic": 4688,
      "ordinal": 4689,
      "straight": 4690,
      "Struct": 4691,
      "handwritten": 4692,
      "complicated": 4693,
      "GR": 4694,
      "Rest": 4695,
      "ST": 4696,
      "cast": 4697,
      "deli": 4698,
      "kin": 4699,
      "##dle": 4700,
      "##_2": 4701,
      "##tivities": 4702,
      "toler": 4703,
      "##raf": 4704,
      "composed": 4705,
      "cla": 4706,
      "perfect": 4707,
      "express": 4708,
      "smart": 4709,
      "iden": 4710,
      "bene": 4711,
      "yielding": 4712,
      "understood": 4713,
      "largely": 4714,
      "controller": 4715,
      "acquis": 4716,
      "##proble": 4717,
      "pixels": 4718,
      "conjug": 4719,
      "intelligence": 4720,
      "concentration": 4721,
      "Boolean": 4722,
      "security": 4723,
      "econom": 4724,
      "Lag": 4725,
      "Radem": 4726,
      "bin": 4727,
      "mu": 4728,
      "texts": 4729,
      "##point": 4730,
      "##GS": 4731,
      "##ath": 4732,
      "coherence": 4733,
      "##iles": 4734,
      "prun": 4735,
      "accomp": 4736,
      "intermediate": 4737,
      "motif": 4738,
      "preprocess": 4739,
      "localization": 4740,
      "biology": 4741,
      "competing": 4742,
      "encoders": 4743,
      "penalized": 4744,
      "suggested": 4745,
      "carry": 4746,
      "exhibits": 4747,
      "absol": 4748,
      "Minim": 4749,
      "##layer": 4750,
      "emerging": 4751,
      "management": 4752,
      "Differ": 4753,
      "conjecture": 4754,
      "Rademacher": 4755,
      "Gradient": 4756,
      "IT": 4757,
      "LM": 4758,
      "Mem": 4759,
      "##VM": 4760,
      "##jection": 4761,
      "##ulate": 4762,
      "##ray": 4763,
      "Theta": 4764,
      "composite": 4765,
      "mode": 4766,
      "##irected": 4767,
      "adverti": 4768,
      "grad": 4769,
      "subsequ": 4770,
      "selects": 4771,
      "ranked": 4772,
      "properly": 4773,
      "place": 4774,
      "##ception": 4775,
      ")$-": 4776,
      "retain": 4777,
      "languages": 4778,
      "2013": 4779,
      "quantity": 4780,
      "##ifying": 4781,
      "thresholding": 4782,
      "integrate": 4783,
      "turns": 4784,
      "earlier": 4785,
      "execution": 4786,
      "screening": 4787,
      "attractive": 4788,
      "AP": 4789,
      "Bern": 4790,
      "Besides": 4791,
      "GMM": 4792,
      "irr": 4793,
      "vehic": 4794,
      "##lace": 4795,
      "##SC": 4796,
      "##KL": 4797,
      "##arity": 4798,
      "ins": 4799,
      "prohib": 4800,
      "##odes": 4801,
      "cooper": 4802,
      "once": 4803,
      "learnt": 4804,
      "position": 4805,
      "distortion": 4806,
      "##ested": 4807,
      "predicts": 4808,
      "##phistic": 4809,
      "giving": 4810,
      "importantly": 4811,
      "synt": 4812,
      "extending": 4813,
      "hardness": 4814,
      "quantities": 4815,
      "##cale": 4816,
      "revealed": 4817,
      "Princip": 4818,
      "adopted": 4819,
      "implicitly": 4820,
      "split": 4821,
      "occurrence": 4822,
      "rows": 4823,
      "consequence": 4824,
      "facilitate": 4825,
      "volume": 4826,
      "simplicity": 4827,
      "acquisition": 4828,
      "2D": 4829,
      "Big": 4830,
      "ir": 4831,
      "}{\\": 4832,
      "##_0": 4833,
      "cour": 4834,
      "##ectation": 4835,
      "##que": 4836,
      "proposal": 4837,
      "variability": 4838,
      "##opic": 4839,
      "mini": 4840,
      "decentral": 4841,
      "six": 4842,
      "succes": 4843,
      "discussion": 4844,
      "exploring": 4845,
      "utilizing": 4846,
      "asymmetric": 4847,
      "MAB": 4848,
      "growth": 4849,
      "HMMs": 4850,
      "Expectation": 4851,
      "Twitter": 4852,
      "redundant": 4853,
      "Method": 4854,
      "slightly": 4855,
      "suboptimal": 4856,
      "huge": 4857,
      "claim": 4858,
      "%.": 4859,
      "CR": 4860,
      "Rel": 4861,
      "fall": 4862,
      "jud": 4863,
      "##FA": 4864,
      "##width": 4865,
      "##OR": 4866,
      "##rob": 4867,
      "##itely": 4868,
      "learnability": 4869,
      "disp": 4870,
      "activities": 4871,
      "imple": 4872,
      "sampler": 4873,
      "extensively": 4874,
      "##imensional": 4875,
      "approximates": 4876,
      "complexities": 4877,
      "sophistic": 4878,
      "attract": 4879,
      "bandwidth": 4880,
      "decompositions": 4881,
      "2011": 4882,
      "precisely": 4883,
      "serve": 4884,
      "descriptors": 4885,
      "annotated": 4886,
      "Eng": 4887,
      "regarding": 4888,
      "hyperparameter": 4889,
      "returns": 4890,
      "phenomenon": 4891,
      "service": 4892,
      "-\\": 4893,
      "30": 4894,
      "SL": 4895,
      "\\%": 4896,
      "bid": 4897,
      "body": 4898,
      "rough": 4899,
      "sl": 4900,
      "}{": 4901,
      "##len": 4902,
      "##eper": 4903,
      "##EG": 4904,
      "##tite": 4905,
      "##erv": 4906,
      "inher": 4907,
      "##ented": 4908,
      "##mption": 4909,
      "proving": 4910,
      "##reement": 4911,
      "convolution": 4912,
      "revis": 4913,
      "cli": 4914,
      "canonical": 4915,
      "arising": 4916,
      "frames": 4917,
      "frameworks": 4918,
      "phr": 4919,
      "equation": 4920,
      "conclusion": 4921,
      "specialized": 4922,
      "drift": 4923,
      "answering": 4924,
      "devise": 4925,
      "Descent": 4926,
      "UCI": 4927,
      "encouraging": 4928,
      "personalized": 4929,
      "patches": 4930,
      "##irror": 4931,
      "lingu": 4932,
      "KL": 4933,
      "Over": 4934,
      "dou": 4935,
      "rend": 4936,
      "##rang": 4937,
      "##oms": 4938,
      "##vature": 4939,
      "##ony": 4940,
      "excess": 4941,
      "suff": 4942,
      "modalities": 4943,
      "records": 4944,
      "##ounded": 4945,
      "note": 4946,
      "undirected": 4947,
      "statistic": 4948,
      "defining": 4949,
      "synthesis": 4950,
      "validated": 4951,
      "discriminant": 4952,
      "practition": 4953,
      "assigned": 4954,
      "believe": 4955,
      "proximity": 4956,
      "##biqu": 4957,
      "diagonal": 4958,
      "sketch": 4959,
      "physics": 4960,
      "sharp": 4961,
      "splitting": 4962,
      "inequalities": 4963,
      "algebraic": 4964,
      "platform": 4965,
      "strictly": 4966,
      "historical": 4967,
      "straightforward": 4968,
      "Restricted": 4969,
      "suffers": 4970,
      ")-": 4971,
      "11": 4972,
      "CA": 4973,
      "EC": 4974,
      "SG": 4975,
      "card": 4976,
      "fold": 4977,
      "tax": 4978,
      "ubiqu": 4979,
      "want": 4980,
      "##gent": 4981,
      "##wh": 4982,
      "##).": 4983,
      "##erial": 4984,
      "##sians": 4985,
      "Thomp": 4986,
      "deeper": 4987,
      "spam": 4988,
      "notions": 4989,
      "impos": 4990,
      "optimally": 4991,
      "solver": 4992,
      "highest": 4993,
      "imaging": 4994,
      "finally": 4995,
      "distributional": 4996,
      "locations": 4997,
      "posed": 4998,
      "biased": 4999,
      "recovers": 5000,
      "project": 5001,
      "updating": 5002,
      "Also": 5003,
      "Adap": 5004,
      "preserve": 5005,
      "integration": 5006,
      "##onomy": 5007,
      "created": 5008,
      "avoids": 5009,
      "balance": 5010,
      "discreti": 5011,
      "drug": 5012,
      "enjoys": 5013,
      "subjects": 5014,
      "Distrib": 5015,
      "exchange": 5016,
      "##abulary": 5017,
      "preprocessing": 5018,
      "Thompson": 5019,
      "CCA": 5020,
      "Det": 5021,
      "El": 5022,
      "Its": 5023,
      "Map": 5024,
      "Sch": 5025,
      "brid": 5026,
      "##DE": 5027,
      "##20": 5028,
      "##itous": 5029,
      "ann": 5030,
      "Web": 5031,
      "shot": 5032,
      "Inspired": 5033,
      "##ended": 5034,
      "considerably": 5035,
      "root": 5036,
      "textual": 5037,
      "epis": 5038,
      "visualization": 5039,
      "smoothing": 5040,
      "utilized": 5041,
      "quantify": 5042,
      "discovered": 5043,
      "interactive": 5044,
      "integer": 5045,
      "Component": 5046,
      "facial": 5047,
      "actually": 5048,
      "adopt": 5049,
      "permutation": 5050,
      "Regression": 5051,
      "Autom": 5052,
      "General": 5053,
      "Algorithm": 5054,
      "vocabulary": 5055,
      "cloud": 5056,
      "beneficial": 5057,
      "absolute": 5058,
      "decentralized": 5059,
      "DT": 5060,
      "Due": 5061,
      "So": 5062,
      "Sem": 5063,
      "date": 5064,
      "hund": 5065,
      "mar": 5066,
      "trip": 5067,
      "ul": 5068,
      "##nov": 5069,
      "##dimensional": 5070,
      "##VI": 5071,
      "##ense": 5072,
      "ing": 5073,
      "inv": 5074,
      "profi": 5075,
      "##sider": 5076,
      "coverage": 5077,
      "consu": 5078,
      "click": 5079,
      "pret": 5080,
      "perception": 5081,
      "recti": 5082,
      "optimisation": 5083,
      "subproble": 5084,
      "working": 5085,
      "##ief": 5086,
      "##ours": 5087,
      "particle": 5088,
      "entail": 5089,
      "##itively": 5090,
      "termed": 5091,
      "degrees": 5092,
      "elastic": 5093,
      "preserves": 5094,
      "curvature": 5095,
      "starting": 5096,
      "imbalanced": 5097,
      "##ipartite": 5098,
      "sophisticated": 5099,
      "##leneck": 5100,
      "profile": 5101,
      ")^": 5102,
      "14": 5103,
      "Ass": 5104,
      "led": 5105,
      "##opping": 5106,
      "##log": 5107,
      "##ey": 5108,
      "##BC": 5109,
      "thesis": 5110,
      "##ode": 5111,
      "##tering": 5112,
      "Theore": 5113,
      "analytics": 5114,
      "manually": 5115,
      "largest": 5116,
      "##fier": 5117,
      "decade": 5118,
      "regularizers": 5119,
      "adapting": 5120,
      "Gaussians": 5121,
      "investigation": 5122,
      "uncon": 5123,
      "2009": 5124,
      "published": 5125,
      "coordinates": 5126,
      "proofs": 5127,
      "attacks": 5128,
      "tailored": 5129,
      "profiles": 5130,
      "misclassification": 5131,
      "proportional": 5132,
      "ridge": 5133,
      "attracted": 5134,
      "hundred": 5135,
      "50": 5136,
      "Beth": 5137,
      "ERM": 5138,
      "LR": 5139,
      "let": 5140,
      "##Fs": 5141,
      "##anch": 5142,
      "##acts": 5143,
      "##side": 5144,
      "coherent": 5145,
      "alone": 5146,
      "appealing": 5147,
      "compr": 5148,
      "##forts": 5149,
      "seem": 5150,
      "computable": 5151,
      "overc": 5152,
      "worse": 5153,
      "valuable": 5154,
      "phon": 5155,
      "operate": 5156,
      "operating": 5157,
      "utilizes": 5158,
      "conditioned": 5159,
      "Prog": 5160,
      "transformed": 5161,
      "extreme": 5162,
      "RBF": 5163,
      "technology": 5164,
      "possibility": 5165,
      "candidates": 5166,
      "appearance": 5167,
      "Appro": 5168,
      "DAG": 5169,
      "voting": 5170,
      "radio": 5171,
      "transductive": 5172,
      "kinds": 5173,
      "##rafted": 5174,
      "conjugate": 5175,
      "ubiquitous": 5176,
      "consumption": 5177,
      "Bethe": 5178,
      "Ham": 5179,
      "II": 5180,
      "LA": 5181,
      "RP": 5182,
      "Rob": 5183,
      "SC": 5184,
      "Squ": 5185,
      "er": 5186,
      "her": 5187,
      "lies": 5188,
      "lie": 5189,
      "labelled": 5190,
      "##mooth": 5191,
      "##Nets": 5192,
      "##educe": 5193,
      "refin": 5194,
      "appears": 5195,
      "##oles": 5196,
      "##uck": 5197,
      "proposing": 5198,
      "efforts": 5199,
      "papers": 5200,
      "check": 5201,
      "segments": 5202,
      "analytically": 5203,
      "lex": 5204,
      "doing": 5205,
      "##ifications": 5206,
      "union": 5207,
      "targets": 5208,
      "focusing": 5209,
      "synthes": 5210,
      "stronger": 5211,
      "investigates": 5212,
      "validity": 5213,
      "assumes": 5214,
      "integrating": 5215,
      "exploited": 5216,
      "advice": 5217,
      "accelerate": 5218,
      "decreases": 5219,
      "MDPs": 5220,
      "emerged": 5221,
      "explanation": 5222,
      "dissimilarity": 5223,
      ")}$": 5224,
      "Dynam": 5225,
      "Fiel": 5226,
      "Hidden": 5227,
      "Kal": 5228,
      "Loc": 5229,
      "bipartite": 5230,
      "clean": 5231,
      "law": 5232,
      "##oints": 5233,
      "##ein": 5234,
      "##MT": 5235,
      "##fficient": 5236,
      "##RC": 5237,
      "##RE": 5238,
      "theta": 5239,
      "##ited": 5240,
      "##itation": 5241,
      "inac": 5242,
      "reform": 5243,
      "prices": 5244,
      "imply": 5245,
      "guide": 5246,
      "Conv": 5247,
      "ideal": 5248,
      "categorical": 5249,
      "driving": 5250,
      "weakly": 5251,
      "Chall": 5252,
      "motivation": 5253,
      "assessment": 5254,
      "reviews": 5255,
      "eigenvectors": 5256,
      "digital": 5257,
      "##SVM": 5258,
      "robotic": 5259,
      "Maximization": 5260,
      "opposed": 5261,
      "##elevant": 5262,
      "bottleneck": 5263,
      "Principal": 5264,
      "linguistic": 5265,
      "practitioners": 5266,
      "16": 5267,
      "Can": 5268,
      "Di": 5269,
      "ROC": 5270,
      "win": 5271,
      "##gg": 5272,
      "##gences": 5273,
      "##oul": 5274,
      "##pancy": 5275,
      "##EM": 5276,
      "##SD": 5277,
      "##GP": 5278,
      "##GA": 5279,
      "##actions": 5280,
      "stages": 5281,
      "##anted": 5282,
      "opin": 5283,
      "never": 5284,
      "unb": 5285,
      "twe": 5286,
      "minima": 5287,
      "observing": 5288,
      "obtains": 5289,
      "emer": 5290,
      "mostly": 5291,
      "identifies": 5292,
      "univariate": 5293,
      "formula": 5294,
      "supported": 5295,
      "captured": 5296,
      "numerically": 5297,
      "educ": 5298,
      "2008": 5299,
      "calculated": 5300,
      "neuron": 5301,
      "decrease": 5302,
      "feasibility": 5303,
      "absence": 5304,
      "complementary": 5305,
      "counterparts": 5306,
      "dramatically": 5307,
      "AC": 5308,
      "Fast": 5309,
      "Ob": 5310,
      "land": 5311,
      "port": 5312,
      "pick": 5313,
      "##IT": 5314,
      "##ken": 5315,
      "##ining": 5316,
      "##orough": 5317,
      "modifications": 5318,
      "##ucting": 5319,
      "enfor": 5320,
      "che": 5321,
      "##ading": 5322,
      "multitask": 5323,
      "multidimensional": 5324,
      "##elling": 5325,
      "measuring": 5326,
      "achievable": 5327,
      "clusterings": 5328,
      "studying": 5329,
      "viol": 5330,
      "Consequently": 5331,
      "surface": 5332,
      "##exp": 5333,
      "separately": 5334,
      "offs": 5335,
      "secondary": 5336,
      "incorporated": 5337,
      "person": 5338,
      "relaxed": 5339,
      "relaxations": 5340,
      "MLP": 5341,
      "Classi": 5342,
      "device": 5343,
      "rounds": 5344,
      "tagging": 5345,
      "trajectory": 5346,
      "phenomena": 5347,
      "library": 5348,
      "enabling": 5349,
      "Multiple": 5350,
      "Estim": 5351,
      "impossible": 5352,
      "25": 5353,
      "SDP": 5354,
      "bri": 5355,
      "put": 5356,
      "passive": 5357,
      "wa": 5358,
      "##graph": 5359,
      "##rm": 5360,
      "##faces": 5361,
      "##max": 5362,
      "##iness": 5363,
      "##itory": 5364,
      "inef": 5365,
      "##odic": 5366,
      "##ula": 5367,
      "modal": 5368,
      "modular": 5369,
      "##ilities": 5370,
      "parsing": 5371,
      "##use": 5372,
      "induction": 5373,
      "significance": 5374,
      "searching": 5375,
      "maker": 5376,
      "width": 5377,
      "integral": 5378,
      "precon": 5379,
      "infty": 5380,
      "satisfied": 5381,
      "evolving": 5382,
      "color": 5383,
      "failure": 5384,
      "intuition": 5385,
      "##yclic": 5386,
      "affinity": 5387,
      "consuming": 5388,
      "##adily": 5389,
      "irrelevant": 5390,
      "++": 5391,
      "Long": 5392,
      "PD": 5393,
      "Syst": 5394,
      "tum": 5395,
      "##lar": 5396,
      "##ia": 5397,
      "##efined": 5398,
      "##MP": 5399,
      "##ED": 5400,
      "thorough": 5401,
      "##etr": 5402,
      "stopping": 5403,
      "##tinomial": 5404,
      "compressive": 5405,
      "spher": 5406,
      "propag": 5407,
      "##ades": 5408,
      "##erification": 5409,
      "##ancing": 5410,
      "instanti": 5411,
      "recovered": 5412,
      "What": 5413,
      "Conditional": 5414,
      "Consider": 5415,
      "blind": 5416,
      "uncover": 5417,
      "centers": 5418,
      "divergences": 5419,
      "}$.": 5420,
      "##regular": 5421,
      "indicates": 5422,
      "contained": 5423,
      "eleg": 5424,
      "skill": 5425,
      "concerns": 5426,
      "derivatives": 5427,
      "##ography": 5428,
      "deviation": 5429,
      "equilibrium": 5430,
      "Optimization": 5431,
      "##structured": 5432,
      "schedul": 5433,
      "Comb": 5434,
      "Program": 5435,
      "unbounded": 5436,
      "precondition": 5437,
      "Fr": 5438,
      "Iter": 5439,
      "MKL": 5440,
      "Net": 5441,
      "Term": 5442,
      "bur": 5443,
      "gather": 5444,
      "mass": 5445,
      "##fe": 5446,
      "##ession": 5447,
      "##ater": 5448,
      "##asts": 5449,
      "compan": 5450,
      "disj": 5451,
      "##ighting": 5452,
      "##anding": 5453,
      "atoms": 5454,
      "unstructured": 5455,
      "scar": 5456,
      "inco": 5457,
      "leq": 5458,
      "interven": 5459,
      "manual": 5460,
      "bounding": 5461,
      "clustered": 5462,
      "sparsi": 5463,
      "formally": 5464,
      "consideration": 5465,
      "convergent": 5466,
      "inferred": 5467,
      "transforms": 5468,
      "plan": 5469,
      "maximizes": 5470,
      "producing": 5471,
      "collections": 5472,
      "addressing": 5473,
      "principles": 5474,
      "encoded": 5475,
      "}$,": 5476,
      "hyperpl": 5477,
      "Prob": 5478,
      "transitions": 5479,
      "reliability": 5480,
      "author": 5481,
      "abstraction": 5482,
      "monotonic": 5483,
      "balanced": 5484,
      "occurs": 5485,
      "##box": 5486,
      "flat": 5487,
      "Maximum": 5488,
      "removing": 5489,
      "branch": 5490,
      "Interesting": 5491,
      "switching": 5492,
      "Memory": 5493,
      "cardinal": 5494,
      "Bec": 5495,
      "MO": 5496,
      "Next": 5497,
      "\\'": 5498,
      "bits": 5499,
      "day": 5500,
      "fo": 5501,
      "had": 5502,
      "ln": 5503,
      "##ks": 5504,
      "##alan": 5505,
      "##ansion": 5506,
      "##elves": 5507,
      "##ulated": 5508,
      "store": 5509,
      "readily": 5510,
      "##antly": 5511,
      "nons": 5512,
      "extent": 5513,
      "otherwise": 5514,
      "email": 5515,
      "multipliers": 5516,
      "characteristic": 5517,
      "availability": 5518,
      "mathrm": 5519,
      "##ronic": 5520,
      "discrimination": 5521,
      "geq": 5522,
      "pursuit": 5523,
      "advanced": 5524,
      "correctness": 5525,
      "duality": 5526,
      "assignments": 5527,
      "affine": 5528,
      "fails": 5529,
      "regardless": 5530,
      "tags": 5531,
      "configurations": 5532,
      "redundancy": 5533,
      "qualitative": 5534,
      "dialogue": 5535,
      "identical": 5536,
      "Challenge": 5537,
      "Because": 5538,
      ".)": 5539,
      "BO": 5540,
      "Bel": 5541,
      "CV": 5542,
      "Even": 5543,
      "GS": 5544,
      "PC": 5545,
      "Propagation": 5546,
      "fra": 5547,
      "merg": 5548,
      "pure": 5549,
      "poss": 5550,
      "vast": 5551,
      "verification": 5552,
      "##sed": 5553,
      "##LA": 5554,
      "##QN": 5555,
      "##ites": 5556,
      "inver": 5557,
      "##uration": 5558,
      "##strained": 5559,
      "##imes": 5560,
      "modes": 5561,
      "##ifies": 5562,
      "material": 5563,
      "unn": 5564,
      "inductive": 5565,
      "##oted": 5566,
      "later": 5567,
      "chooses": 5568,
      "grouping": 5569,
      "updated": 5570,
      "##space": 5571,
      "hypergraph": 5572,
      "frequent": 5573,
      "##obis": 5574,
      "receives": 5575,
      "tends": 5576,
      "Perceptron": 5577,
      "intelligent": 5578,
      "teaching": 5579,
      "services": 5580,
      "predefined": 5581,
      "bootstrap": 5582,
      "virtual": 5583,
      "deliver": 5584,
      "syntac": 5585,
      "course": 5586,
      "English": 5587,
      "brief": 5588,
      "##alanobis": 5589,
      "NLP": 5590,
      "Nash": 5591,
      "crafted": 5592,
      "hope": 5593,
      "sad": 5594,
      "sized": 5595,
      "##utive": 5596,
      "##sem": 5597,
      "##AP": 5598,
      "##NF": 5599,
      "##icious": 5600,
      "optimizes": 5601,
      "##ectional": 5602,
      "decay": 5603,
      "movie": 5604,
      "classified": 5605,
      "systematically": 5606,
      "plac": 5607,
      "topological": 5608,
      "phy": 5609,
      "##ounted": 5610,
      "concrete": 5611,
      "rankings": 5612,
      "GPs": 5613,
      "ell_2": 5614,
      "Secondly": 5615,
      "webs": 5616,
      "##SSO": 5617,
      "enhanced": 5618,
      "belongs": 5619,
      "##ADE": 5620,
      "##ographic": 5621,
      "remaining": 5622,
      "electric": 5623,
      "homogeneous": 5624,
      "discrepancy": 5625,
      "safety": 5626,
      "fairly": 5627,
      "Factorization": 5628,
      "SVRG": 5629,
      "encountered": 5630,
      "Mahalanobis": 5631,
      "Bernoul": 5632,
      "inefficient": 5633,
      "Bernoulli": 5634,
      "BC": 5635,
      "Err": 5636,
      "EEG": 5637,
      "Follow": 5638,
      "Naive": 5639,
      "Rank": 5640,
      "Time": 5641,
      "faces": 5642,
      "hous": 5643,
      "medi": 5644,
      "##zed": 5645,
      "compati": 5646,
      "moder": 5647,
      "##ford": 5648,
      "##theless": 5649,
      "expansion": 5650,
      "##aptic": 5651,
      "try": 5652,
      "overhead": 5653,
      "boundaries": 5654,
      "emo": 5655,
      "maximal": 5656,
      "encomp": 5657,
      "Statis": 5658,
      "templ": 5659,
      "amb": 5660,
      "controls": 5661,
      "aimed": 5662,
      "backward": 5663,
      "##avy": 5664,
      "satisfying": 5665,
      "weaker": 5666,
      "outperforming": 5667,
      "necessarily": 5668,
      "articles": 5669,
      "details": 5670,
      "centralized": 5671,
      "ReLU": 5672,
      "favorable": 5673,
      "conjunction": 5674,
      "compositional": 5675,
      "Traditional": 5676,
      "identifiability": 5677,
      "Adaptive": 5678,
      "##201": 5679,
      "Approxim": 5680,
      "Programming": 5681,
      "Interestingly": 5682,
      "Del": 5683,
      "Ny": 5684,
      "SI": 5685,
      "Sur": 5686,
      "Sig": 5687,
      "\\}": 5688,
      "cam": 5689,
      "hear": 5690,
      "nested": 5691,
      "seri": 5692,
      "##range": 5693,
      "##sh": 5694,
      "##crib": 5695,
      "##words": 5696,
      "##SR": 5697,
      "##ale": 5698,
      "innov": 5699,
      "##astive": 5700,
      "##tine": 5701,
      "module": 5702,
      "##oup": 5703,
      "beg": 5704,
      "optima": 5705,
      "until": 5706,
      "moving": 5707,
      "former": 5708,
      "##served": 5709,
      "road": 5710,
      "phot": 5711,
      "describing": 5712,
      "eta": 5713,
      "interpolation": 5714,
      "establishing": 5715,
      "heavy": 5716,
      "degrad": 5717,
      "activations": 5718,
      "trials": 5719,
      "})$.": 5720,
      "RBMs": 5721,
      "stored": 5722,
      "recognize": 5723,
      "poorly": 5724,
      "multimedia": 5725,
      "Auto": 5726,
      "summarization": 5727,
      "stacked": 5728,
      "arguments": 5729,
      "prototype": 5730,
      "pipeline": 5731,
      "spherical": 5732,
      "Among": 5733,
      "BN": 5734,
      "LV": 5735,
      "Ph": 5736,
      "Search": 5737,
      "Typ": 5738,
      "Word": 5739,
      "lines": 5740,
      "name": 5741,
      "pol": 5742,
      "rho": 5743,
      "##day": 5744,
      "##LR": 5745,
      "thems": 5746,
      "##sts": 5747,
      "##stein": 5748,
      "##fications": 5749,
      "spanning": 5750,
      "disag": 5751,
      "Intern": 5752,
      "##unctions": 5753,
      "gramm": 5754,
      "analytic": 5755,
      "trunc": 5756,
      "##enced": 5757,
      "highl": 5758,
      "interact": 5759,
      "comparative": 5760,
      "transp": 5761,
      "plus": 5762,
      "##ibler": 5763,
      "presenting": 5764,
      "##emporal": 5765,
      "texture": 5766,
      "explores": 5767,
      "longer": 5768,
      "curse": 5769,
      "annotations": 5770,
      "aggregate": 5771,
      "mappings": 5772,
      "forecast": 5773,
      "}(\\": 5774,
      "Short": 5775,
      "digit": 5776,
      "Means": 5777,
      "circum": 5778,
      "repeatedly": 5779,
      "equilibria": 5780,
      "##factory": 5781,
      "symbolic": 5782,
      "alleviate": 5783,
      "remarkable": 5784,
      "Different": 5785,
      "hundreds": 5786,
      "Dynamic": 5787,
      "saddle": 5788,
      "themselves": 5789,
      "%,": 5790,
      ")/": 5791,
      ");": 5792,
      "Link": 5793,
      "Pri": 5794,
      "Sampling": 5795,
      "Topic": 5796,
      "bar": 5797,
      "cach": 5798,
      "dedic": 5799,
      "ut": 5800,
      "wish": 5801,
      "##ixt": 5802,
      "##(\\": 5803,
      "conform": 5804,
      "exemp": 5805,
      "compet": 5806,
      "spread": 5807,
      "bases": 5808,
      "impose": 5809,
      "recording": 5810,
      "##ush": 5811,
      "neither": 5812,
      "unob": 5813,
      "multilayer": 5814,
      "##alues": 5815,
      "##load": 5816,
      "transcrip": 5817,
      "adapts": 5818,
      "phone": 5819,
      "biom": 5820,
      "mitig": 5821,
      "decompos": 5822,
      "quantization": 5823,
      "centroid": 5824,
      "deals": 5825,
      "Chin": 5826,
      "descriptions": 5827,
      "reliably": 5828,
      "formalize": 5829,
      "proteins": 5830,
      "acquired": 5831,
      "digits": 5832,
      "Leibler": 5833,
      "anomalous": 5834,
      "qualitatively": 5835,
      "##weighted": 5836,
      "drawbacks": 5837,
      "successive": 5838,
      "bridge": 5839,
      "Belief": 5840,
      "possess": 5841,
      "Coll": 5842,
      "Hy": 5843,
      "Hierarch": 5844,
      "Ising": 5845,
      "IRL": 5846,
      "Kull": 5847,
      "rise": 5848,
      "rot": 5849,
      "saving": 5850,
      "tigh": 5851,
      "##bling": 5852,
      "##go": 5853,
      "##points": 5854,
      "##ai": 5855,
      "##itions": 5856,
      "##eas": 5857,
      "##IP": 5858,
      "##ky": 5859,
      "Third": 5860,
      "##riting": 5861,
      "##irectional": 5862,
      "resem": 5863,
      "parsim": 5864,
      "genomic": 5865,
      "trend": 5866,
      "plane": 5867,
      "##ologically": 5868,
      "synchron": 5869,
      "equally": 5870,
      "parallelism": 5871,
      "below": 5872,
      "continuously": 5873,
      "polynomials": 5874,
      "goals": 5875,
      "##spectral": 5876,
      "}$-": 5877,
      "posteriori": 5878,
      "reasons": 5879,
      "Enc": 5880,
      "broader": 5881,
      "calculation": 5882,
      "calculate": 5883,
      "eigenvalues": 5884,
      "decreasing": 5885,
      "bags": 5886,
      "Similar": 5887,
      "encourage": 5888,
      "analogous": 5889,
      "##appa": 5890,
      "teacher": 5891,
      "GPUs": 5892,
      "admits": 5893,
      "drastic": 5894,
      "clearly": 5895,
      "CRFs": 5896,
      "manipulation": 5897,
      "recorded": 5898,
      "##sych": 5899,
      "pruning": 5900,
      "retaining": 5901,
      "syntactic": 5902,
      "ambigu": 5903,
      "Nystr": 5904,
      "Kullback": 5905,
      "tighter": 5906,
      "EP": 5907,
      "HO": 5908,
      "IR": 5909,
      "Match": 5910,
      "Sel": 5911,
      "Value": 5912,
      "aver": 5913,
      "bill": 5914,
      "job": 5915,
      "medic": 5916,
      "rare": 5917,
      "tau": 5918,
      "vs": 5919,
      "written": 5920,
      "##rect": 5921,
      "##eff": 5922,
      "##MD": 5923,
      "##mit": 5924,
      "##match": 5925,
      "##NE": 5926,
      "##HC": 5927,
      "##ones": 5928,
      "##ester": 5929,
      "instr": 5930,
      "##iding": 5931,
      "##idel": 5932,
      "accept": 5933,
      "posi": 5934,
      "##used": 5935,
      "intensive": 5936,
      "seed": 5937,
      "replic": 5938,
      "interests": 5939,
      "indust": 5940,
      "##otes": 5941,
      "minimized": 5942,
      "develops": 5943,
      "correction": 5944,
      "identity": 5945,
      "throughput": 5946,
      "treated": 5947,
      "negl": 5948,
      "promo": 5949,
      "purely": 5950,
      "covariates": 5951,
      "outperformed": 5952,
      "penalties": 5953,
      "tune": 5954,
      "multinomial": 5955,
      "creating": 5956,
      "critic": 5957,
      "avoiding": 5958,
      "cells": 5959,
      "coupling": 5960,
      "augmentation": 5961,
      "multiplication": 5962,
      "##OMDP": 5963,
      "cope": 5964,
      "bottom": 5965,
      "Correl": 5966,
      "subsequent": 5967,
      "overcomplete": 5968,
      "Hierarchical": 5969,
      "Bu": 5970,
      "Current": 5971,
      "Dat": 5972,
      "Gen": 5973,
      "No": 5974,
      "ND": 5975,
      "Near": 5976,
      "Normal": 5977,
      "amp": 5978,
      "bus": 5979,
      "cat": 5980,
      "fron": 5981,
      "mirror": 5982,
      "rad": 5983,
      "sat": 5984,
      "##ping": 5985,
      "##ao": 5986,
      "##ze": 5987,
      "##yth": 5988,
      "##MI": 5989,
      "##cap": 5990,
      "##fol": 5991,
      "##SA": 5992,
      "##TD": 5993,
      "##GM": 5994,
      "##erc": 5995,
      "##atures": 5996,
      "##ars": 5997,
      "infin": 5998,
      "resili": 5999,
      "uns": 6000,
      "accumul": 6001,
      "nonz": 6002,
      "none": 6003,
      "generality": 6004,
      "format": 6005,
      "verified": 6006,
      "introduction": 6007,
      "transmission": 6008,
      "characterizing": 6009,
      "defines": 6010,
      "encodes": 6011,
      "competition": 6012,
      "contribute": 6013,
      "promise": 6014,
      "Neighb": 6015,
      "causes": 6016,
      "integrates": 6017,
      "softmax": 6018,
      "technologies": 6019,
      "MIL": 6020,
      "diseases": 6021,
      "adjac": 6022,
      "circu": 6023,
      "platforms": 6024,
      "keeping": 6025,
      "http": 6026,
      "histogram": 6027,
      "motifs": 6028,
      "LMS": 6029,
      "##onym": 6030,
      "elegant": 6031,
      "scheduling": 6032,
      "heart": 6033,
      "\")": 6034,
      "90": 6035,
      "99": 6036,
      "CU": 6037,
      "Know": 6038,
      "Sing": 6039,
      "Training": 6040,
      "bring": 6041,
      "cit": 6042,
      "da": 6043,
      "grained": 6044,
      "lists": 6045,
      "##uel": 6046,
      "##air": 6047,
      "##lines": 6048,
      "##haps": 6049,
      "##Reduce": 6050,
      "##_n": 6051,
      "anim": 6052,
      "##vergence": 6053,
      "modality": 6054,
      "##olec": 6055,
      "shed": 6056,
      "distill": 6057,
      "proportion": 6058,
      "actively": 6059,
      "academ": 6060,
      "acyclic": 6061,
      "imputation": 6062,
      "options": 6063,
      "chains": 6064,
      "##venue": 6065,
      "newly": 6066,
      "overview": 6067,
      "selective": 6068,
      "whenever": 6069,
      "parameterization": 6070,
      "practically": 6071,
      "##ractical": 6072,
      "limiting": 6073,
      "biases": 6074,
      "State": 6075,
      "Stack": 6076,
      "associations": 6077,
      "neighbour": 6078,
      "foundation": 6079,
      "indicators": 6080,
      "Comput": 6081,
      "caused": 6082,
      "2006": 6083,
      "frequencies": 6084,
      "primarily": 6085,
      "})$,": 6086,
      "acceleration": 6087,
      "summary": 6088,
      "regarded": 6089,
      "Shann": 6090,
      "Reinforcement": 6091,
      "derivation": 6092,
      "Processes": 6093,
      "simplified": 6094,
      "}^{": 6095,
      "Regular": 6096,
      "Goog": 6097,
      "According": 6098,
      "opportunities": 6099,
      "economic": 6100,
      "taxonomy": 6101,
      "subproblems": 6102,
      "LASSO": 6103,
      "portfol": 6104,
      "wavel": 6105,
      "scarce": 6106,
      "foot": 6107,
      "nonsmooth": 6108,
      "Delta": 6109,
      "camer": 6110,
      "serious": 6111,
      "dedicated": 6112,
      "CC": 6113,
      "Drop": 6114,
      "FW": 6115,
      "Gam": 6116,
      "Last": 6117,
      "Mixt": 6118,
      "Yet": 6119,
      "aid": 6120,
      "away": 6121,
      "cd": 6122,
      "gover": 6123,
      "l1": 6124,
      "mist": 6125,
      "sac": 6126,
      "ten": 6127,
      "##ru": 6128,
      "##aves": 6129,
      "##haus": 6130,
      "##Rs": 6131,
      "##tice": 6132,
      "##ingly": 6133,
      "##aster": 6134,
      "##urate": 6135,
      "##ream": 6136,
      "stere": 6137,
      "ang": 6138,
      "modules": 6139,
      "##igible": 6140,
      "percept": 6141,
      "##ights": 6142,
      "chem": 6143,
      "unav": 6144,
      "relate": 6145,
      "replace": 6146,
      "##ameter": 6147,
      "overl": 6148,
      "solely": 6149,
      "##lexity": 6150,
      "decide": 6151,
      "decades": 6152,
      "##ght": 6153,
      "formed": 6154,
      "minimizer": 6155,
      "ordered": 6156,
      "trading": 6157,
      "poses": 6158,
      "synaptic": 6159,
      "formulas": 6160,
      "collect": 6161,
      "becoming": 6162,
      "projects": 6163,
      "exploratory": 6164,
      "playing": 6165,
      "additionally": 6166,
      "incorrect": 6167,
      "unclear": 6168,
      "promin": 6169,
      "^{\\": 6170,
      "evolve": 6171,
      "expectations": 6172,
      "controlling": 6173,
      "constructs": 6174,
      "eigenvector": 6175,
      "eigenvalue": 6176,
      "concerned": 6177,
      "##book": 6178,
      "facilitates": 6179,
      "safe": 6180,
      "Variational": 6181,
      "cycle": 6182,
      "counterpart": 6183,
      "guided": 6184,
      "constitu": 6185,
      "protocols": 6186,
      "vanishing": 6187,
      "cascade": 6188,
      "Lagrang": 6189,
      "gradually": 6190,
      "inherently": 6191,
      "conclusions": 6192,
      "triplet": 6193,
      "Error": 6194,
      "Internet": 6195,
      "Chinese": 6196,
      "17": 6197,
      "And": 6198,
      "Band": 6199,
      "Never": 6200,
      "Sol": 6201,
      "Wol": 6202,
      "afor": 6203,
      "astr": 6204,
      "mac": 6205,
      "roles": 6206,
      "##redi": 6207,
      "##ots": 6208,
      "##lust": 6209,
      "##DD": 6210,
      "##RNA": 6211,
      "##10": 6212,
      "##LDA": 6213,
      "##arrow": 6214,
      "insp": 6215,
      "##ithful": 6216,
      "##ularities": 6217,
      "cos": 6218,
      "##rial": 6219,
      "##ominal": 6220,
      "##omially": 6221,
      "spike": 6222,
      "positions": 6223,
      "arithm": 6224,
      "intra": 6225,
      "regress": 6226,
      "accounts": 6227,
      "subc": 6228,
      "incon": 6229,
      "##encing": 6230,
      "generalizing": 6231,
      "inters": 6232,
      "reductions": 6233,
      "respective": 6234,
      "epoch": 6235,
      "polyt": 6236,
      "entry": 6237,
      "Another": 6238,
      "goes": 6239,
      "mismatch": 6240,
      "smoothed": 6241,
      "polynomially": 6242,
      "discusses": 6243,
      "indices": 6244,
      "Chain": 6245,
      "faced": 6246,
      "richer": 6247,
      "faithful": 6248,
      "aligned": 6249,
      "Simulation": 6250,
      "customer": 6251,
      "Black": 6252,
      "DBN": 6253,
      "versus": 6254,
      "irregular": 6255,
      "ingredi": 6256,
      "Statistical": 6257,
      "Lagrangian": 6258,
      "Nevertheless": 6259,
      "aforem": 6260,
      "Face": 6261,
      "High": 6262,
      "MS": 6263,
      "Max": 6264,
      "Of": 6265,
      "POMDP": 6266,
      "age": 6267,
      "fed": 6268,
      "fri": 6269,
      "fidel": 6270,
      "mask": 6271,
      "tables": 6272,
      "##az": 6273,
      "##lom": 6274,
      "##hat": 6275,
      "##PC": 6276,
      "##LT": 6277,
      "##onious": 6278,
      "##ensitive": 6279,
      "##elet": 6280,
      "##standing": 6281,
      "##ulating": 6282,
      "covers": 6283,
      "refined": 6284,
      "exceed": 6285,
      "That": 6286,
      "Though": 6287,
      "##rier": 6288,
      "##rific": 6289,
      "imposed": 6290,
      "regimes": 6291,
      "contam": 6292,
      "trick": 6293,
      "##berg": 6294,
      "worker": 6295,
      "developments": 6296,
      "novelty": 6297,
      "##urring": 6298,
      "explains": 6299,
      "viewpoint": 6300,
      "treating": 6301,
      "establishes": 6302,
      "Altern": 6303,
      "restrictive": 6304,
      "trial": 6305,
      "Firstly": 6306,
      "facts": 6307,
      "server": 6308,
      "appropriately": 6309,
      "shortc": 6310,
      "descriptor": 6311,
      "actor": 6312,
      "purposes": 6313,
      "differs": 6314,
      "markets": 6315,
      "Partic": 6316,
      "exclu": 6317,
      "explained": 6318,
      "thought": 6319,
      "SSC": 6320,
      "$(\\": 6321,
      "calibrated": 6322,
      "copula": 6323,
      "attains": 6324,
      "Arti": 6325,
      "enjoy": 6326,
      "package": 6327,
      "Represent": 6328,
      "DPPs": 6329,
      "annealing": 6330,
      "Fields": 6331,
      "disjoint": 6332,
      "cardinality": 6333,
      "drastically": 6334,
      "cdot": 6335,
      "sacrific": 6336,
      "Wolfe": 6337,
      "aforementioned": 6338,
      "fidelity": 6339,
      "+\\": 6340,
      "DQN": 6341,
      "Large": 6342,
      "RM": 6343,
      "Tensor": 6344,
      "bic": 6345,
      "fill": 6346,
      "his": 6347,
      "my": 6348,
      "nu": 6349,
      "om": 6350,
      "portion": 6351,
      "wr": 6352,
      "##rup": 6353,
      "##AE": 6354,
      "##QA": 6355,
      "##esp": 6356,
      "##ository": 6357,
      "compress": 6358,
      "modify": 6359,
      "##irect": 6360,
      "##eme": 6361,
      "recip": 6362,
      "##ocation": 6363,
      "scr": 6364,
      "trains": 6365,
      "traces": 6366,
      "incur": 6367,
      "generalizations": 6368,
      "##opy": 6369,
      "discard": 6370,
      "demonstrations": 6371,
      "cores": 6372,
      "##roduct": 6373,
      "regularity": 6374,
      "agreement": 6375,
      "##aking": 6376,
      "travel": 6377,
      "production": 6378,
      "throughout": 6379,
      "cred": 6380,
      "operates": 6381,
      "Recog": 6382,
      "decompose": 6383,
      "experti": 6384,
      "illust": 6385,
      "remove": 6386,
      "##asses": 6387,
      "centered": 6388,
      "##ustry": 6389,
      "Unsupervised": 6390,
      "environmental": 6391,
      "motivates": 6392,
      "Supervised": 6393,
      "relying": 6394,
      "maintains": 6395,
      "Empirically": 6396,
      "belonging": 6397,
      "breast": 6398,
      "customers": 6399,
      "imbalance": 6400,
      "argument": 6401,
      "prohibitive": 6402,
      "implementing": 6403,
      "MapReduce": 6404,
      "ultim": 6405,
      "pretraining": 6406,
      "erg": 6407,
      "Local": 6408,
      "opinion": 6409,
      "begin": 6410,
      "decomposable": 6411,
      "Nearest": 6412,
      "Shannon": 6413,
      "portfolio": 6414,
      "arithmetic": 6415,
      "13": 6416,
      "18": 6417,
      "ANN": 6418,
      "FS": 6419,
      "HDP": 6420,
      "IC": 6421,
      "NADE": 6422,
      "RA": 6423,
      "SE": 6424,
      "Sequ": 6425,
      "SOM": 6426,
      "Wik": 6427,
      "bil": 6428,
      "molec": 6429,
      "psych": 6430,
      "rar": 6431,
      "song": 6432,
      "war": 6433,
      "##oir": 6434,
      "##net": 6435,
      "##ians": 6436,
      "##CS": 6437,
      "##onential": 6438,
      "##orate": 6439,
      "##edom": 6440,
      "contin": 6441,
      "comprom": 6442,
      "span": 6443,
      "Inference": 6444,
      "##ainting": 6445,
      "impressive": 6446,
      "page": 6447,
      "option": 6448,
      "##vian": 6449,
      "interference": 6450,
      "induce": 6451,
      "indirect": 6452,
      "industry": 6453,
      "detected": 6454,
      "processors": 6455,
      "formation": 6456,
      "##serv": 6457,
      "theorems": 6458,
      "traditionally": 6459,
      "signs": 6460,
      "Forest": 6461,
      "unifying": 6462,
      "likelihoods": 6463,
      "separability": 6464,
      "temper": 6465,
      "ambi": 6466,
      "##ube": 6467,
      "release": 6468,
      "interacting": 6469,
      "posteriors": 6470,
      "infeas": 6471,
      "hyperspectral": 6472,
      "transforming": 6473,
      "Compar": 6474,
      "counts": 6475,
      "motivate": 6476,
      "detectors": 6477,
      "affects": 6478,
      "aggregating": 6479,
      "sites": 6480,
      "controllers": 6481,
      "beliefs": 6482,
      "acquire": 6483,
      "phenotyp": 6484,
      "occurring": 6485,
      "extracts": 6486,
      "loopy": 6487,
      "MDL": 6488,
      "divide": 6489,
      "symmetry": 6490,
      "advertising": 6491,
      "revisit": 6492,
      "##while": 6493,
      "Semi": 6494,
      "Assum": 6495,
      "Theoretical": 6496,
      "unconstrained": 6497,
      "landmark": 6498,
      "cheap": 6499,
      "Classifier": 6500,
      "transport": 6501,
      "unobserved": 6502,
      "parsimonious": 6503,
      "negligible": 6504,
      "Buil": 6505,
      "infinitely": 6506,
      "macro": 6507,
      "##lomer": 6508,
      "Artificial": 6509,
      "expertise": 6510,
      "ambient": 6511,
      "({\\": 6512,
      "40": 6513,
      "CB": 6514,
      "DF": 6515,
      "Em": 6516,
      "MT": 6517,
      "NI": 6518,
      "PR": 6519,
      "Red": 6520,
      "SM": 6521,
      "Uni": 6522,
      "^*": 6523,
      "days": 6524,
      "fix": 6525,
      "labor": 6526,
      "mentioned": 6527,
      "ur": 6528,
      "##bly": 6529,
      "##ovian": 6530,
      "##tr": 6531,
      "##erti": 6532,
      "##ino": 6533,
      "##entally": 6534,
      "##stro": 6535,
      "cold": 6536,
      "revenue": 6537,
      "exhaus": 6538,
      "sums": 6539,
      "compens": 6540,
      "##amples": 6541,
      "intended": 6542,
      "optimistic": 6543,
      "unr": 6544,
      "unpr": 6545,
      "coming": 6546,
      "##roup": 6547,
      "preval": 6548,
      "##omposition": 6549,
      "locality": 6550,
      "##nesses": 6551,
      "##avily": 6552,
      "survi": 6553,
      "experi": 6554,
      "widesp": 6555,
      "heavily": 6556,
      "individually": 6557,
      "scenes": 6558,
      "conditioning": 6559,
      "reconstructing": 6560,
      "freedom": 6561,
      "equipped": 6562,
      "MLE": 6563,
      "assigning": 6564,
      "thresholds": 6565,
      "spatio": 6566,
      "inside": 6567,
      "##sibility": 6568,
      "Spectral": 6569,
      "median": 6570,
      "permut": 6571,
      "monoton": 6572,
      "derivative": 6573,
      "Indeed": 6574,
      "Perform": 6575,
      "ordinary": 6576,
      "deployment": 6577,
      "Various": 6578,
      "versati": 6579,
      "gran": 6580,
      "gras": 6581,
      "arrive": 6582,
      "participants": 6583,
      "Prediction": 6584,
      "shrinkage": 6585,
      "salient": 6586,
      "##ervoir": 6587,
      "rectified": 6588,
      ")^{": 6589,
      "inacc": 6590,
      "tweets": 6591,
      "merging": 6592,
      "electricity": 6593,
      "compatible": 6594,
      "industrial": 6595,
      "nonzero": 6596,
      "daily": 6597,
      "Mixture": 6598,
      "inconsist": 6599,
      "scratch": 6600,
      "ergodic": 6601,
      "infeasible": 6602,
      "widespread": 6603,
      "Cal": 6604,
      "Had": 6605,
      "QA": 6606,
      "XML": 6607,
      "_1": 6608,
      "kappa": 6609,
      "mid": 6610,
      "morph": 6611,
      "null": 6612,
      "old": 6613,
      "x_": 6614,
      "##AB": 6615,
      "##TS": 6616,
      "##GG": 6617,
      "##ats": 6618,
      "##edical": 6619,
      "##eto": 6620,
      "##active": 6621,
      "force": 6622,
      "##rative": 6623,
      "impractical": 6624,
      "pages": 6625,
      "string": 6626,
      "expand": 6627,
      "##ending": 6628,
      "seems": 6629,
      "scat": 6630,
      "trends": 6631,
      "nont": 6632,
      "leaf": 6633,
      "outside": 6634,
      "discounted": 6635,
      "scalar": 6636,
      "prevent": 6637,
      "logical": 6638,
      "maximally": 6639,
      "maximized": 6640,
      "##ependent": 6641,
      "searches": 6642,
      "Markovian": 6643,
      "layered": 6644,
      "aiming": 6645,
      "satisfactory": 6646,
      "stationarity": 6647,
      "failures": 6648,
      "examined": 6649,
      "Ensem": 6650,
      "SPAR": 6651,
      "SPNs": 6652,
      "perturbed": 6653,
      "offering": 6654,
      "surrogates": 6655,
      "Least": 6656,
      "organization": 6657,
      "robots": 6658,
      "robotics": 6659,
      "ignore": 6660,
      "passes": 6661,
      "looking": 6662,
      "##cript": 6663,
      "momentum": 6664,
      "cycles": 6665,
      "Discrimin": 6666,
      "divided": 6667,
      "symbol": 6668,
      "originally": 6669,
      "display": 6670,
      "phrases": 6671,
      "Robust": 6672,
      "hyperplane": 6673,
      "Prior": 6674,
      "savings": 6675,
      "##cape": 6676,
      "rarely": 6677,
      "${\\": 6678,
      "Be": 6679,
      "BF": 6680,
      "F1": 6681,
      "Kron": 6682,
      "NE": 6683,
      "Seman": 6684,
      "Turing": 6685,
      "``": 6686,
      "bor": 6687,
      "hoc": 6688,
      "nominal": 6689,
      "push": 6690,
      "##gressive": 6691,
      "##oh": 6692,
      "##sers": 6693,
      "##label": 6694,
      "##vec": 6695,
      "##EE": 6696,
      "##king": 6697,
      "##ortions": 6698,
      "##enable": 6699,
      "##roll": 6700,
      "##eld": 6701,
      "prox": 6702,
      "proves": 6703,
      "##cei": 6704,
      "methodologies": 6705,
      "spik": 6706,
      "prone": 6707,
      "##oregressive": 6708,
      "imposing": 6709,
      "expres": 6710,
      "scan": 6711,
      "acces": 6712,
      "computers": 6713,
      "trust": 6714,
      "leader": 6715,
      "undes": 6716,
      "kernelized": 6717,
      "vert": 6718,
      "abilities": 6719,
      "specify": 6720,
      "constants": 6721,
      "included": 6722,
      "caption": 6723,
      "prescrib": 6724,
      "##ropic": 6725,
      "factored": 6726,
      "automata": 6727,
      "connect": 6728,
      "Finding": 6729,
      "amenable": 6730,
      "degener": 6731,
      "potentials": 6732,
      "##avig": 6733,
      "agglomer": 6734,
      "tries": 6735,
      "aggregated": 6736,
      "assessed": 6737,
      "fault": 6738,
      "refine": 6739,
      "recognized": 6740,
      "concerning": 6741,
      "$).": 6742,
      "covering": 6743,
      "electronic": 6744,
      "vox": 6745,
      "ignoring": 6746,
      "seeks": 6747,
      "brings": 6748,
      "justification": 6749,
      "rigorously": 6750,
      "Active": 6751,
      "reflect": 6752,
      "MFCC": 6753,
      "routing": 6754,
      "emphasis": 6755,
      "smartph": 6756,
      "API": 6757,
      "Distributed": 6758,
      "burden": 6759,
      "househ": 6760,
      "utter": 6761,
      "overlap": 6762,
      "prominent": 6763,
      "sacrificing": 6764,
      "biclust": 6765,
      "Wikip": 6766,
      "unreli": 6767,
      "''": 6768,
      "(\"": 6769,
      "AR": 6770,
      "Back": 6771,
      "BLE": 6772,
      "Cr": 6773,
      "Ca": 6774,
      "Is": 6775,
      "Li": 6776,
      "Other": 6777,
      "Pl": 6778,
      "Part": 6779,
      "Set": 6780,
      "TS": 6781,
      "\\{": 6782,
      "]$": 6783,
      "duration": 6784,
      "elicit": 6785,
      "fly": 6786,
      "l_": 6787,
      "lem": 6788,
      "navig": 6789,
      "stim": 6790,
      "##oti": 6791,
      "##set": 6792,
      "##BN": 6793,
      "##fold": 6794,
      "##2vec": 6795,
      "##arse": 6796,
      "##array": 6797,
      "infinity": 6798,
      "toy": 6799,
      "today": 6800,
      "##imaging": 6801,
      "##rays": 6802,
      "weather": 6803,
      "##rivial": 6804,
      "byp": 6805,
      "proposals": 6806,
      "##ample": 6807,
      "##uctu": 6808,
      "##abilistic": 6809,
      "multilinear": 6810,
      "generalisation": 6811,
      "interface": 6812,
      "sigma": 6813,
      "thanks": 6814,
      "scaled": 6815,
      "logs": 6816,
      "phi": 6817,
      "collective": 6818,
      "biologically": 6819,
      "commerc": 6820,
      "connecting": 6821,
      "##ommod": 6822,
      "conflic": 6823,
      "Recommend": 6824,
      "associative": 6825,
      "oriented": 6826,
      "toolbox": 6827,
      "suffic": 6828,
      "determination": 6829,
      "##spaces": 6830,
      "neighboring": 6831,
      "persist": 6832,
      "occlusion": 6833,
      "2007": 6834,
      "batches": 6835,
      "restrictions": 6836,
      "Class": 6837,
      "preserved": 6838,
      "draws": 6839,
      "Within": 6840,
      "##print": 6841,
      "affected": 6842,
      "creates": 6843,
      "supporting": 6844,
      "shapes": 6845,
      "team": 6846,
      "##ambigu": 6847,
      "recognizing": 6848,
      "incrementally": 6849,
      "confirmed": 6850,
      "organized": 6851,
      "simplest": 6852,
      "cutting": 6853,
      "fluctu": 6854,
      "enhancement": 6855,
      "strengths": 6856,
      "deployed": 6857,
      "Block": 6858,
      "Algorithms": 6859,
      "payoffs": 6860,
      "SNR": 6861,
      "https": 6862,
      "parametrized": 6863,
      "vehicle": 6864,
      "roughly": 6865,
      "discretization": 6866,
      "marting": 6867,
      "phoneme": 6868,
      "refinement": 6869,
      "skills": 6870,
      "Frank": 6871,
      "Probabilistic": 6872,
      "moderate": 6873,
      "Approximate": 6874,
      "Correlation": 6875,
      "camera": 6876,
      "Lastly": 6877,
      "govern": 6878,
      "temperature": 6879,
      "Assuming": 6880,
      "Building": 6881,
      "nontrivial": 6882,
      "Wikipedia": 6883,
      "BLEU": 6884,
      "Ama": 6885,
      "Efficient": 6886,
      "LF": 6887,
      "OS": 6888,
      "Polic": 6889,
      "la": 6890,
      "rational": 6891,
      "som": 6892,
      "soci": 6893,
      "session": 6894,
      "tel": 6895,
      "##be": 6896,
      "##spec": 6897,
      "##ius": 6898,
      "##zon": 6899,
      "##eb": 6900,
      "##eep": 6901,
      "##MRI": 6902,
      "##BL": 6903,
      "##moid": 6904,
      "##well": 6905,
      "##LC": 6906,
      "##ka": 6907,
      "##ora": 6908,
      "forget": 6909,
      "Weighted": 6910,
      "shelf": 6911,
      "##umulation": 6912,
      "##ung": 6913,
      "perp": 6914,
      "gender": 6915,
      "recep": 6916,
      "optical": 6917,
      "enorm": 6918,
      "relates": 6919,
      "relating": 6920,
      "multilabel": 6921,
      "interior": 6922,
      "wherein": 6923,
      "processed": 6924,
      "randomness": 6925,
      "observes": 6926,
      "plug": 6927,
      "plau": 6928,
      "similarly": 6929,
      "subsum": 6930,
      "signature": 6931,
      "representational": 6932,
      "##illance": 6933,
      "behavioral": 6934,
      "determines": 6935,
      "visually": 6936,
      "ensures": 6937,
      "successes": 6938,
      "trem": 6939,
      "orient": 6940,
      "hierarchies": 6941,
      "tempor": 6942,
      "2016": 6943,
      "remote": 6944,
      "wider": 6945,
      "discriminate": 6946,
      "linked": 6947,
      "covariate": 6948,
      "consec": 6949,
      "sum_": 6950,
      "argu": 6951,
      "##ogene": 6952,
      "resolve": 6953,
      "fitness": 6954,
      "##ecker": 6955,
      "SSL": 6956,
      "starts": 6957,
      "SAT": 6958,
      "speedups": 6959,
      "summarize": 6960,
      "eliminate": 6961,
      "elementary": 6962,
      "merits": 6963,
      "neuroimaging": 6964,
      "halfspaces": 6965,
      "MRFs": 6966,
      "Methods": 6967,
      "Automatic": 6968,
      "entailment": 6969,
      "Kalman": 6970,
      "##etrical": 6971,
      "physi": 6972,
      "recordings": 6973,
      "##going": 6974,
      "synchronization": 6975,
      "Knowledge": 6976,
      "credit": 6977,
      "Performance": 6978,
      "Kronecker": 6979,
      "commercial": 6980,
      "Amazon": 6981,
      "enormous": 6982,
      ")\\": 6983,
      "80": 6984,
      "95": 6985,
      "BM": 6986,
      "Bas": 6987,
      "CO": 6988,
      "CG": 6989,
      "DNA": 6990,
      "FP": 6991,
      "Fil": 6992,
      "Id": 6993,
      "Key": 6994,
      "LI": 6995,
      "Low": 6996,
      "Label": 6997,
      "MRI": 6998,
      "Out": 6999,
      "PA": 7000,
      "RD": 7001,
      "RNA": 7002,
      "Self": 7003,
      "TV": 7004,
      "Task": 7005,
      "Val": 7006,
      "ahead": 7007,
      "bad": 7008,
      "happ": 7009,
      "##oph": 7010,
      "##iv": 7011,
      "##hed": 7012,
      "##DM": 7013,
      "##fli": 7014,
      "##NMF": 7015,
      "isol": 7016,
      "coarse": 7017,
      "##requ": 7018,
      "stri": 7019,
      "rejection": 7020,
      "##ticip": 7021,
      "##rian": 7022,
      "compound": 7023,
      "##ident": 7024,
      "adds": 7025,
      "adequ": 7026,
      "##ift": 7027,
      "##endous": 7028,
      "##lication": 7029,
      "matter": 7030,
      "atomic": 7031,
      "accommod": 7032,
      "inclusion": 7033,
      "leave": 7034,
      "manus": 7035,
      "decoup": 7036,
      "linearity": 7037,
      "motor": 7038,
      "corrob": 7039,
      "convers": 7040,
      "species": 7041,
      "specification": 7042,
      "emb": 7043,
      "localized": 7044,
      "##cepted": 7045,
      "characterizes": 7046,
      "biometric": 7047,
      "succeed": 7048,
      "visible": 7049,
      "sparsely": 7050,
      "decomposes": 7051,
      "quantification": 7052,
      "occup": 7053,
      "conceptual": 7054,
      "month": 7055,
      "shortest": 7056,
      "sciences": 7057,
      "detector": 7058,
      "influences": 7059,
      "engineered": 7060,
      "preferred": 7061,
      "Atari": 7062,
      "mathematically": 7063,
      "Parti": 7064,
      "refers": 7065,
      "intrusion": 7066,
      "reached": 7067,
      "$),": 7068,
      "Open": 7069,
      "encourages": 7070,
      "correspondence": 7071,
      "quantitatively": 7072,
      "##ioms": 7073,
      "movements": 7074,
      "axioms": 7075,
      "histograms": 7076,
      "Structured": 7077,
      "##ucker": 7078,
      "lexic": 7079,
      "System": 7080,
      "Netfli": 7081,
      "Sigma": 7082,
      "barrier": 7083,
      "cache": 7084,
      "biomedical": 7085,
      "##esterov": 7086,
      "cosine": 7087,
      "Representation": 7088,
      "Recognition": 7089,
      "survival": 7090,
      "permutations": 7091,
      "tremendous": 7092,
      "##ogeneity": 7093,
      "Identi": 7094,
      "Netflix": 7095,
      "26": 7096,
      "Bi": 7097,
      "Bell": 7098,
      "BIC": 7099,
      "Frob": 7100,
      "Jac": 7101,
      "Langu": 7102,
      "Much": 7103,
      "Nesterov": 7104,
      "Si": 7105,
      "Sum": 7106,
      "\\}$": 7107,
      "auction": 7108,
      "cues": 7109,
      "gith": 7110,
      "lands": 7111,
      "mim": 7112,
      "ren": 7113,
      "tup": 7114,
      "}-": 7115,
      "##raries": 7116,
      "##naps": 7117,
      "##lor": 7118,
      "##here": 7119,
      "##ME": 7120,
      "##care": 7121,
      "##des": 7122,
      "##SL": 7123,
      "##200": 7124,
      "##OT": 7125,
      "##LMs": 7126,
      "##IR": 7127,
      "##HN": 7128,
      "##enius": 7129,
      "##eterm": 7130,
      "##elets": 7131,
      "##vey": 7132,
      "##ulus": 7133,
      "isom": 7134,
      "ont": 7135,
      "convol": 7136,
      "stop": 7137,
      "stead": 7138,
      "appar": 7139,
      "Inc": 7140,
      "accepted": 7141,
      "perhaps": 7142,
      "##nik": 7143,
      "obvious": 7144,
      "array": 7145,
      "arrays": 7146,
      "strings": 7147,
      "mapped": 7148,
      "##lick": 7149,
      "matroid": 7150,
      "scope": 7151,
      "subsequently": 7152,
      "sigmoid": 7153,
      "##lot": 7154,
      "knowing": 7155,
      "discip": 7156,
      "moves": 7157,
      "demonstration": 7158,
      "$\\{": 7159,
      "##ourse": 7160,
      "ranks": 7161,
      "severe": 7162,
      "SVHN": 7163,
      "robustly": 7164,
      "iterates": 7165,
      "succeeds": 7166,
      "##CAL": 7167,
      "Where": 7168,
      "interpol": 7169,
      "spectra": 7170,
      "played": 7171,
      "parallelized": 7172,
      "head": 7173,
      "initially": 7174,
      "indicating": 7175,
      "counting": 7176,
      "partitioned": 7177,
      "convenient": 7178,
      "##ART": 7179,
      "affecting": 7180,
      "Ent": 7181,
      "lengths": 7182,
      "paradigms": 7183,
      "##LMS": 7184,
      "Simulations": 7185,
      "##iously": 7186,
      "subgradient": 7187,
      "simplify": 7188,
      "microarray": 7189,
      "admit": 7190,
      "removed": 7191,
      "subjective": 7192,
      "LSH": 7193,
      "##tasks": 7194,
      "libraries": 7195,
      "replaced": 7196,
      "Import": 7197,
      "Logic": 7198,
      "vehicles": 7199,
      "cooperative": 7200,
      "bidirectional": 7201,
      "inversion": 7202,
      "Following": 7203,
      "medium": 7204,
      "degradation": 7205,
      "distillation": 7206,
      "Google": 7207,
      "wavelet": 7208,
      "Gamma": 7209,
      "perceptual": 7210,
      "unreliable": 7211,
      "Policy": 7212,
      "Frobenius": 7213,
      "github": 7214,
      "DL": 7215,
      "Equ": 7216,
      "FC": 7217,
      "GA": 7218,
      "IS": 7219,
      "LD": 7220,
      "L2": 7221,
      "RC": 7222,
      "Rather": 7223,
      "Se": 7224,
      "SQ": 7225,
      "Social": 7226,
      "Vap": 7227,
      "fMRI": 7228,
      "hur": 7229,
      "vul": 7230,
      "##gmenting": 7231,
      "##mer": 7232,
      "##word": 7233,
      "##),": 7234,
      "##_k": 7235,
      "##jected": 7236,
      "##asser": 7237,
      "isot": 7238,
      "storing": 7239,
      "##raft": 7240,
      "exceeds": 7241,
      "ascent": 7242,
      "##abet": 7243,
      "intensity": 7244,
      "reports": 7245,
      "accumulation": 7246,
      "contents": 7247,
      "trying": 7248,
      "immediate": 7249,
      "convert": 7250,
      "specifying": 7251,
      "calls": 7252,
      "factorized": 7253,
      "handles": 7254,
      "goodness": 7255,
      "surp": 7256,
      "##MMs": 7257,
      "parallelization": 7258,
      "^{(": 7259,
      "sensory": 7260,
      "contrastive": 7261,
      "restricting": 7262,
      "ell_0": 7263,
      "devoted": 7264,
      "exhibiting": 7265,
      "Pareto": 7266,
      "balancing": 7267,
      "suggesting": 7268,
      "surveillance": 7269,
      "concentr": 7270,
      "##board": 7271,
      "consequences": 7272,
      "Allocation": 7273,
      "volumes": 7274,
      "explanations": 7275,
      "constitute": 7276,
      "misclassi": 7277,
      "dominant": 7278,
      "malicious": 7279,
      "subgraphs": 7280,
      "tolerance": 7281,
      "accomplish": 7282,
      "Hamming": 7283,
      "ConvNets": 7284,
      "Divergence": 7285,
      "education": 7286,
      "tumor": 7287,
      "gathered": 7288,
      "centroids": 7289,
      "front": 7290,
      "academic": 7291,
      "subclass": 7292,
      "Alternating": 7293,
      "Ensemble": 7294,
      "Semantic": 7295,
      "consecutive": 7296,
      "Bellman": 7297,
      "Language": 7298,
      "steady": 7299,
      "Vapnik": 7300,
      "vulner": 7301,
      "60": 7302,
      "ARM": 7303,
      "BSS": 7304,
      "Fuzzy": 7305,
      "Gre": 7306,
      "MSE": 7307,
      "PL": 7308,
      "Syn": 7309,
      "\\|": 7310,
      "bank": 7311,
      "ease": 7312,
      "fing": 7313,
      "tut": 7314,
      "##ault": 7315,
      "##CP": 7316,
      "##PA": 7317,
      "##vents": 7318,
      "##TA": 7319,
      "##Gs": 7320,
      "##tild": 7321,
      "##inant": 7322,
      "inapp": 7323,
      "##eced": 7324,
      "##entang": 7325,
      "conv": 7326,
      "really": 7327,
      "anticip": 7328,
      "assist": 7329,
      "##ilton": 7330,
      "##quer": 7331,
      "reservoir": 7332,
      "acts": 7333,
      "acid": 7334,
      "imper": 7335,
      "##ifold": 7336,
      "obst": 7337,
      "##adata": 7338,
      "##ativity": 7339,
      "whereby": 7340,
      "declar": 7341,
      "##aussian": 7342,
      "##roducing": 7343,
      "prem": 7344,
      "##ourn": 7345,
      "abn": 7346,
      "logit": 7347,
      "transpar": 7348,
      "substit": 7349,
      "subsampling": 7350,
      "unifies": 7351,
      "behave": 7352,
      "characters": 7353,
      "##part": 7354,
      "bug": 7355,
      "Conc": 7356,
      "alternate": 7357,
      "confusion": 7358,
      "greed": 7359,
      "separating": 7360,
      "##ositional": 7361,
      "speeding": 7362,
      "visualize": 7363,
      "utilization": 7364,
      "quantile": 7365,
      "widetild": 7366,
      "experimentation": 7367,
      "helpful": 7368,
      "LSTMs": 7369,
      "calculus": 7370,
      "directional": 7371,
      "eventually": 7372,
      "slowly": 7373,
      "##IFT": 7374,
      "##prisingly": 7375,
      "closer": 7376,
      "Applications": 7377,
      "tradeoffs": 7378,
      "radius": 7379,
      "demanding": 7380,
      "periodic": 7381,
      "stacking": 7382,
      "Subspace": 7383,
      "##...": 7384,
      "routin": 7385,
      "replacing": 7386,
      "malware": 7387,
      "Relational": 7388,
      "phrase": 7389,
      "ECOC": 7390,
      "Squares": 7391,
      "lexical": 7392,
      "enforcing": 7393,
      "medicine": 7394,
      "instrum": 7395,
      "NDCG": 7396,
      "business": 7397,
      "monotonically": 7398,
      "granular": 7399,
      "prescribed": 7400,
      "plausible": 7401,
      "manuscript": 7402,
      "widetilde": 7403,
      "23": 7404,
      "97": 7405,
      "ABC": 7406,
      "DCA": 7407,
      "During": 7408,
      "Flick": 7409,
      "Glo": 7410,
      "Group": 7411,
      "KNN": 7412,
      "MR": 7413,
      "Marg": 7414,
      "Sw": 7415,
      "SBM": 7416,
      "Text": 7417,
      "Vis": 7418,
      "^\\": 7419,
      "auctions": 7420,
      "fits": 7421,
      "gest": 7422,
      "hours": 7423,
      "kNN": 7424,
      "##ball": 7425,
      "##oor": 7426,
      "##scale": 7427,
      "##itical": 7428,
      "##BMs": 7429,
      "##PCA": 7430,
      "##work": 7431,
      "##In": 7432,
      "##GB": 7433,
      "##onn": 7434,
      "##orem": 7435,
      "##orial": 7436,
      "##entic": 7437,
      "##aten": 7438,
      "##etries": 7439,
      "cone": 7440,
      "conquer": 7441,
      "stabil": 7442,
      "anonym": 7443,
      "wee": 7444,
      "white": 7445,
      "##osure": 7446,
      "clari": 7447,
      "deb": 7448,
      "metadata": 7449,
      "##ques": 7450,
      "disad": 7451,
      "disentang": 7452,
      "approx": 7453,
      "unre": 7454,
      "unable": 7455,
      "repository": 7456,
      "##ventional": 7457,
      "gram": 7458,
      "subt": 7459,
      "solid": 7460,
      "notor": 7461,
      "minor": 7462,
      "##ypt": 7463,
      "differently": 7464,
      "probably": 7465,
      "abund": 7466,
      "planted": 7467,
      "smallest": 7468,
      "Gauss": 7469,
      "populations": 7470,
      "keyp": 7471,
      "miRNA": 7472,
      "projecting": 7473,
      "##tinuous": 7474,
      "decomposed": 7475,
      "speeds": 7476,
      "quantified": 7477,
      "geodes": 7478,
      "illustrates": 7479,
      "indicator": 7480,
      "advoc": 7481,
      "2000": 7482,
      "2005": 7483,
      "held": 7484,
      "unlabelled": 7485,
      "annotators": 7486,
      "formalism": 7487,
      "forecasts": 7488,
      "informed": 7489,
      "mutually": 7490,
      "Movie": 7491,
      "abstractions": 7492,
      "##ikelihood": 7493,
      "Previously": 7494,
      "DAE": 7495,
      "justify": 7496,
      "healthcare": 7497,
      "predom": 7498,
      "walks": 7499,
      "Nonnegative": 7500,
      "movement": 7501,
      "proportions": 7502,
      "neurosc": 7503,
      "claims": 7504,
      "implements": 7505,
      "clique": 7506,
      "Generalized": 7507,
      "invest": 7508,
      "Iterative": 7509,
      "companies": 7510,
      "sparsification": 7511,
      "briefly": 7512,
      "website": 7513,
      "BCI": 7514,
      "Surprisingly": 7515,
      "grammar": 7516,
      "positi": 7517,
      "##ueling": 7518,
      "exhaustive": 7519,
      "##ceived": 7520,
      "vertex": 7521,
      "agglomerative": 7522,
      "perplexity": 7523,
      "physiological": 7524,
      "corroborate": 7525,
      "Entropy": 7526,
      "Flickr": 7527,
      "disadvant": 7528,
      "21": 7529,
      "32": 7530,
      "85": 7531,
      "DNF": 7532,
      "ER": 7533,
      "FF": 7534,
      "Gr": 7535,
      "Gabor": 7536,
      "Hum": 7537,
      "Not": 7538,
      "RS": 7539,
      "Sm": 7540,
      "TR": 7541,
      "TIM": 7542,
      "Vi": 7543,
      "WS": 7544,
      "_2": 7545,
      "cub": 7546,
      "fused": 7547,
      "rig": 7548,
      "say": 7549,
      "##aved": 7550,
      "##he": 7551,
      "##12": 7552,
      "##LD": 7553,
      "thre": 7554,
      "##order": 7555,
      "##esh": 7556,
      "##ano": 7557,
      "proli": 7558,
      "reweighted": 7559,
      "except": 7560,
      "Three": 7561,
      "devis": 7562,
      "##ucible": 7563,
      "sphere": 7564,
      "resampling": 7565,
      "dispar": 7566,
      "##ewed": 7567,
      "pric": 7568,
      "##andard": 7569,
      "problematic": 7570,
      "obli": 7571,
      "##adays": 7572,
      "subrou": 7573,
      "subtasks": 7574,
      "notably": 7575,
      "minwise": 7576,
      "knows": 7577,
      "imitation": 7578,
      "realized": 7579,
      "finance": 7580,
      "simplex": 7581,
      "evaluates": 7582,
      "inferences": 7583,
      "live": 7584,
      "anytime": 7585,
      "instant": 7586,
      "##empor": 7587,
      "unify": 7588,
      "##ounting": 7589,
      "strategic": 7590,
      "observational": 7591,
      "schema": 7592,
      "Conf": 7593,
      "explosion": 7594,
      "surely": 7595,
      "furthermore": 7596,
      "Standard": 7597,
      "parallelizable": 7598,
      "discovers": 7599,
      "noiseless": 7600,
      "degra": 7601,
      "freely": 7602,
      "names": 7603,
      "restrict": 7604,
      "reasonably": 7605,
      "assigns": 7606,
      "triang": 7607,
      "coordination": 7608,
      "Modern": 7609,
      "fundamentally": 7610,
      "spatiot": 7611,
      "##assively": 7612,
      "gaps": 7613,
      "adopting": 7614,
      "198": 7615,
      "ratios": 7616,
      "fitted": 7617,
      "authentic": 7618,
      "permit": 7619,
      "permits": 7620,
      "Mining": 7621,
      "Laplace": 7622,
      "harmon": 7623,
      "harves": 7624,
      "scientists": 7625,
      "leveraged": 7626,
      "authorship": 7627,
      "Distance": 7628,
      "Transfer": 7629,
      "dramatic": 7630,
      "windows": 7631,
      "Minimization": 7632,
      "prohibitively": 7633,
      "Distribution": 7634,
      "Detection": 7635,
      "DTW": 7636,
      "seemingly": 7637,
      "DAGs": 7638,
      "educational": 7639,
      "incoherence": 7640,
      "intervention": 7641,
      "template": 7642,
      "disagreement": 7643,
      "highlights": 7644,
      "Matching": 7645,
      "Neighbor": 7646,
      "footprint": 7647,
      "stereo": 7648,
      "constituent": 7649,
      "Often": 7650,
      "Embed": 7651,
      "BFGS": 7652,
      "expressi": 7653,
      "accessible": 7654,
      "receptive": 7655,
      "Whereas": 7656,
      "):": 7657,
      ",\"": 7658,
      "24": 7659,
      "Agg": 7660,
      "DD": 7661,
      "Focus": 7662,
      "ILP": 7663,
      "KB": 7664,
      "Lin": 7665,
      "Let": 7666,
      "Micro": 7667,
      "MTL": 7668,
      "Tucker": 7669,
      "VOC": 7670,
      "Work": 7671,
      "cy": 7672,
      "certi": 7673,
      "did": 7674,
      "eight": 7675,
      "flo": 7676,
      "hot": 7677,
      "hind": 7678,
      "iv": 7679,
      "ww": 7680,
      "wear": 7681,
      "}/": 7682,
      "##rely": 7683,
      "##oop": 7684,
      "##iant": 7685,
      "##zing": 7686,
      "##ffer": 7687,
      "##med": 7688,
      "##Lab": 7689,
      "##HR": 7690,
      "##onance": 7691,
      "##eros": 7692,
      "##enk": 7693,
      "##entions": 7694,
      "##atus": 7695,
      "##ley": 7696,
      "##leep": 7697,
      "##stream": 7698,
      "reverse": 7699,
      "compil": 7700,
      "clim": 7701,
      "##omics": 7702,
      "##omings": 7703,
      "##irit": 7704,
      "spirit": 7705,
      "Their": 7706,
      "Theorem": 7707,
      "parser": 7708,
      "percent": 7709,
      "repar": 7710,
      "contrary": 7711,
      "multiscale": 7712,
      "leg": 7713,
      "##ells": 7714,
      "imm": 7715,
      "lowest": 7716,
      "forming": 7717,
      "converted": 7718,
      "##ailable": 7719,
      "viable": 7720,
      "##akes": 7721,
      "##akov": 7722,
      "##urred": 7723,
      "designs": 7724,
      "respond": 7725,
      "stepsi": 7726,
      "resultant": 7727,
      "predictable": 7728,
      "Once": 7729,
      "ensuring": 7730,
      "##ommun": 7731,
      "released": 7732,
      "conditionally": 7733,
      "equivalently": 7734,
      "weaknesses": 7735,
      "entirely": 7736,
      "geometrical": 7737,
      "default": 7738,
      "querying": 7739,
      "##model": 7740,
      "revealing": 7741,
      "engines": 7742,
      "SPL": 7743,
      "resolves": 7744,
      "constructions": 7745,
      "Research": 7746,
      "broadly": 7747,
      "theories": 7748,
      "slower": 7749,
      "cellular": 7750,
      "Index": 7751,
      "tailed": 7752,
      "occurrences": 7753,
      "##apsed": 7754,
      "cuts": 7755,
      "Cluster": 7756,
      "peer": 7757,
      "monitor": 7758,
      "elimination": 7759,
      "packet": 7760,
      "deviations": 7761,
      "##related": 7762,
      "MMD": 7763,
      "reconstructed": 7764,
      "fairness": 7765,
      "enabled": 7766,
      "parametrization": 7767,
      "insensitive": 7768,
      "Overall": 7769,
      "incoherent": 7770,
      "MOOC": 7771,
      "\\}^": 7772,
      "truncated": 7773,
      "averaged": 7774,
      "circuits": 7775,
      "citep": 7776,
      "Regularized": 7777,
      "polytope": 7778,
      "shortcomings": 7779,
      "incurs": 7780,
      "inconsistent": 7781,
      "temporally": 7782,
      "disciplines": 7783,
      "finger": 7784,
      "granularity": 7785,
      "notoriously": 7786,
      "neuroscience": 7787,
      "TIMIT": 7788,
      "rigid": 7789,
      "pricing": 7790,
      "subroutine": 7791,
      "instantaneous": 7792,
      "##emporary": 7793,
      "spatiotemporal": 7794,
      "',": 7795,
      "22": 7796,
      "Ag": 7797,
      "Dis": 7798,
      "Dual": 7799,
      "EDA": 7800,
      "FM": 7801,
      "IDS": 7802,
      "L_1": 7803,
      "L_2": 7804,
      "MML": 7805,
      "OR": 7806,
      "PAS": 7807,
      "Pyth": 7808,
      "SO": 7809,
      "Sk": 7810,
      "SK": 7811,
      "Ter": 7812,
      "VI": 7813,
      "dog": 7814,
      "dimin": 7815,
      "fem": 7816,
      "gated": 7817,
      "hull": 7818,
      "labell": 7819,
      "site": 7820,
      "}}$": 7821,
      "##bility": 7822,
      "##rec": 7823,
      "##rich": 7824,
      "##lds": 7825,
      "##zen": 7826,
      "##eu": 7827,
      "##hang": 7828,
      "##yi": 7829,
      "##Ps": 7830,
      "##As": 7831,
      "##AL": 7832,
      "##vies": 7833,
      "##ET": 7834,
      "##14": 7835,
      "##WS": 7836,
      "##--": 7837,
      "therm": 7838,
      "##enn": 7839,
      "##atural": 7840,
      "insu": 7841,
      "##anes": 7842,
      "##aced": 7843,
      "##sth": 7844,
      "##stone": 7845,
      "anti": 7846,
      "##osp": 7847,
      "modifying": 7848,
      "rescal": 7849,
      "Theory": 7850,
      "disambigu": 7851,
      "##ewhat": 7852,
      "classifications": 7853,
      "enforce": 7854,
      "enumer": 7855,
      "arrange": 7856,
      "distortions": 7857,
      "child": 7858,
      "unim": 7859,
      "reporting": 7860,
      "analyse": 7861,
      "submission": 7862,
      "overcomes": 7863,
      "outer": 7864,
      "twofold": 7865,
      "induces": 7866,
      "comparably": 7867,
      "decon": 7868,
      "detects": 7869,
      "processor": 7870,
      "movies": 7871,
      "regularize": 7872,
      "autoregressive": 7873,
      "##ibatch": 7874,
      "prioriti": 7875,
      "collecting": 7876,
      "##ffe": 7877,
      "concise": 7878,
      "grouped": 7879,
      "confound": 7880,
      "investigating": 7881,
      "Stud": 7882,
      "going": 7883,
      "interpretations": 7884,
      "famous": 7885,
      "misspec": 7886,
      "illum": 7887,
      "remedy": 7888,
      "quantifying": 7889,
      "superp": 7890,
      "Proble": 7891,
      "promote": 7892,
      "linkage": 7893,
      "##ava": 7894,
      "initialize": 7895,
      "##aborative": 7896,
      "drawing": 7897,
      "serves": 7898,
      "adversarially": 7899,
      "influenced": 7900,
      "functionals": 7901,
      "skelet": 7902,
      "calculations": 7903,
      "turning": 7904,
      "splits": 7905,
      "demands": 7906,
      "Decomposition": 7907,
      "Boosting": 7908,
      "ignored": 7909,
      "##MAB": 7910,
      "guidance": 7911,
      "merge": 7912,
      "breaking": 7913,
      "adjusted": 7914,
      "Meanwhile": 7915,
      "SDCA": 7916,
      "Impro": 7917,
      "remarkably": 7918,
      "tolerant": 7919,
      "episodes": 7920,
      "comprises": 7921,
      "Hamilton": 7922,
      "checking": 7923,
      "emergence": 7924,
      "violated": 7925,
      "preconditioning": 7926,
      "unnecess": 7927,
      "political": 7928,
      "rotation": 7929,
      "billion": 7930,
      "Computer": 7931,
      "unavailable": 7932,
      "Bandit": 7933,
      "astronom": 7934,
      "versatile": 7935,
      "inaccurate": 7936,
      "proxy": 7937,
      "forgetting": 7938,
      "Valiant": 7939,
      "landscape": 7940,
      "tutorial": 7941,
      "declarative": 7942,
      "positives": 7943,
      "www": 7944,
      "PASCAL": 7945,
      "45": 7946,
      "93": 7947,
      "AN": 7948,
      "Binary": 7949,
      "Crowd": 7950,
      "DS": 7951,
      "Den": 7952,
      "DML": 7953,
      "ID": 7954,
      "Like": 7955,
      "Mul": 7956,
      "Mirror": 7957,
      "Nam": 7958,
      "ODE": 7959,
      "RIP": 7960,
      "Ts": 7961,
      "Tsy": 7962,
      "Wasser": 7963,
      "dile": 7964,
      "gold": 7965,
      "host": 7966,
      "iid": 7967,
      "rated": 7968,
      "section": 7969,
      "table": 7970,
      "uti": 7971,
      "vital": 7972,
      "year": 7973,
      "##boost": 7974,
      "##bakov": 7975,
      "##ger": 7976,
      "##ool": 7977,
      "##aur": 7978,
      "##aper": 7979,
      "##FS": 7980,
      "##determ": 7981,
      "##Rank": 7982,
      "##IS": 7983,
      "##ki": 7984,
      "##kit": 7985,
      "##kens": 7986,
      "##TP": 7987,
      "##Hash": 7988,
      "##48": 7989,
      "##itable": 7990,
      "##issible": 7991,
      "##asive": 7992,
      "token": 7993,
      "##acles": 7994,
      "##ulum": 7995,
      "alarm": 7996,
      "conges": 7997,
      "rever": 7998,
      "reject": 7999
    }
  }
}